unsigned char humidity_predictor_tflite[] = {
  0x20, 0x00, 0x00, 0x00, 0x54, 0x46, 0x4c, 0x33, 0x00, 0x00, 0x00, 0x00,
  0x00, 0x00, 0x12, 0x00, 0x1c, 0x00, 0x04, 0x00, 0x08, 0x00, 0x0c, 0x00,
  0x10, 0x00, 0x14, 0x00, 0x00, 0x00, 0x18, 0x00, 0x12, 0x00, 0x00, 0x00,
  0x03, 0x00, 0x00, 0x00, 0x68, 0x0c, 0x00, 0x00, 0x28, 0x08, 0x00, 0x00,
  0x10, 0x08, 0x00, 0x00, 0x3c, 0x00, 0x00, 0x00, 0x04, 0x00, 0x00, 0x00,
  0x01, 0x00, 0x00, 0x00, 0x0c, 0x00, 0x00, 0x00, 0x08, 0x00, 0x0c, 0x00,
  0x04, 0x00, 0x08, 0x00, 0x08, 0x00, 0x00, 0x00, 0x08, 0x00, 0x00, 0x00,
  0x0b, 0x00, 0x00, 0x00, 0x13, 0x00, 0x00, 0x00, 0x6d, 0x69, 0x6e, 0x5f,
  0x72, 0x75, 0x6e, 0x74, 0x69, 0x6d, 0x65, 0x5f, 0x76, 0x65, 0x72, 0x73,
  0x69, 0x6f, 0x6e, 0x00, 0x0c, 0x00, 0x00, 0x00, 0xc8, 0x07, 0x00, 0x00,
  0xb4, 0x07, 0x00, 0x00, 0x58, 0x07, 0x00, 0x00, 0xf4, 0x06, 0x00, 0x00,
  0xe0, 0x06, 0x00, 0x00, 0xcc, 0x04, 0x00, 0x00, 0xb8, 0x00, 0x00, 0x00,
  0x64, 0x00, 0x00, 0x00, 0x58, 0x00, 0x00, 0x00, 0x44, 0x00, 0x00, 0x00,
  0x30, 0x00, 0x00, 0x00, 0x04, 0x00, 0x00, 0x00, 0xd6, 0xf8, 0xff, 0xff,
  0x04, 0x00, 0x00, 0x00, 0x10, 0x00, 0x00, 0x00, 0x31, 0x2e, 0x35, 0x2e,
  0x30, 0x00, 0x00, 0x00, 0x00, 0x00, 0x00, 0x00, 0x00, 0x00, 0x00, 0x00,
  0x00, 0x00, 0x00, 0x00, 0x00, 0x00, 0x00, 0x00, 0x00, 0x00, 0x00, 0x00,
  0x5c, 0xf4, 0xff, 0xff, 0x00, 0x00, 0x00, 0x00, 0x00, 0x00, 0x00, 0x00,
  0x00, 0x00, 0x00, 0x00, 0x6c, 0xf4, 0xff, 0xff, 0x00, 0x00, 0x00, 0x00,
  0x00, 0x00, 0x00, 0x00, 0x00, 0x00, 0x00, 0x00, 0x7c, 0xf4, 0xff, 0xff,
  0x00, 0x00, 0x00, 0x00, 0x26, 0xf9, 0xff, 0xff, 0x04, 0x00, 0x00, 0x00,
  0x40, 0x00, 0x00, 0x00, 0xc7, 0xfc, 0x4c, 0xbd, 0xd2, 0x9e, 0xde, 0xbb,
  0x2d, 0x25, 0xf8, 0xbe, 0x4d, 0x94, 0xc6, 0xbd, 0x94, 0x4f, 0xcd, 0x3d,
  0x2b, 0x75, 0xa1, 0x3e, 0x38, 0x87, 0x83, 0x3d, 0x9d, 0x35, 0x56, 0xbd,
  0xbe, 0xbb, 0x4f, 0x3d, 0xea, 0xf6, 0x8a, 0x3e, 0xba, 0x68, 0x4c, 0x3b,
  0xdf, 0x7c, 0x77, 0x3e, 0x9e, 0x37, 0x02, 0xbc, 0x32, 0x29, 0xbb, 0xbe,
  0xae, 0xfb, 0x0c, 0x3f, 0x2b, 0x87, 0x6c, 0xbe, 0x00, 0x00, 0x00, 0x00,
  0x76, 0xf9, 0xff, 0xff, 0x04, 0x00, 0x00, 0x00, 0x00, 0x04, 0x00, 0x00,
  0x18, 0xbe, 0x99, 0xbf, 0x1b, 0x99, 0xce, 0xbe, 0xfc, 0xfa, 0x26, 0xbe,
  0x59, 0x6e, 0xbf, 0xbe, 0x68, 0x0c, 0x93, 0xbe, 0x32, 0xa8, 0x44, 0x3e,
  0x82, 0xb9, 0x69, 0xbc, 0xf3, 0x31, 0xa9, 0x3e, 0xf0, 0x85, 0x52, 0x3d,
  0x42, 0x1e, 0x3a, 0xbf, 0xfd, 0x58, 0xbe, 0xbe, 0x60, 0xad, 0xb9, 0xbe,
  0xf9, 0x9a, 0xc7, 0x3e, 0x35, 0x45, 0x5f, 0x3f, 0x29, 0xd1, 0x5c, 0x3d,
  0x87, 0x5e, 0x5c, 0x3e, 0x95, 0xe5, 0x1d, 0xbf, 0x20, 0xcd, 0x61, 0x3d,
  0xea, 0x87, 0x39, 0x3e, 0xbd, 0xd3, 0x93, 0x3e, 0x45, 0x76, 0xae, 0xbe,
  0xac, 0xdf, 0xd9, 0x3d, 0x22, 0x23, 0x3f, 0xbf, 0xe1, 0xdc, 0x75, 0xbe,
  0xe2, 0x24, 0x64, 0x3e, 0x42, 0xb2, 0x10, 0xbe, 0xe5, 0xed, 0x7d, 0xbe,
  0x4a, 0x3c, 0x23, 0x3e, 0x92, 0xf2, 0x44, 0x3e, 0x94, 0x9b, 0x0b, 0x3e,
  0x38, 0x4e, 0xeb, 0x3c, 0x76, 0x8e, 0x95, 0x3e, 0x76, 0xdb, 0xe7, 0xbe,
  0x85, 0x76, 0xca, 0x3e, 0x89, 0x8e, 0x95, 0xbe, 0x90, 0x94, 0x8c, 0xbe,
  0x8d, 0x62, 0xd4, 0x3e, 0x43, 0x9b, 0xbf, 0x3e, 0x87, 0x80, 0x37, 0xbd,
  0x75, 0x52, 0xac, 0x3e, 0x19, 0x75, 0x68, 0xbe, 0xbd, 0x7f, 0xdd, 0xbe,
  0x74, 0x17, 0xc8, 0xbd, 0xc2, 0x54, 0x20, 0xbe, 0xaa, 0x72, 0x75, 0x3e,
  0xfb, 0x69, 0x3d, 0x3e, 0xb8, 0x71, 0xb1, 0xbe, 0xb0, 0xd1, 0x97, 0xbe,
  0x75, 0xd7, 0x86, 0xbe, 0xca, 0xab, 0x2e, 0x3e, 0x66, 0x26, 0x83, 0xbe,
  0xa8, 0x17, 0x42, 0xbd, 0xea, 0x09, 0x0b, 0x3e, 0x70, 0x02, 0xcd, 0x3c,
  0xc0, 0x7c, 0x35, 0xb9, 0x2b, 0xeb, 0xa9, 0xbe, 0x18, 0x43, 0xda, 0xbd,
  0x9f, 0xc4, 0x2b, 0xbe, 0x84, 0xce, 0xe2, 0xbd, 0xc0, 0x44, 0x9c, 0xbd,
  0x82, 0x94, 0x1b, 0xbe, 0xbe, 0xad, 0xea, 0xbd, 0xa0, 0xe7, 0xcf, 0xbe,
  0x49, 0xd4, 0x1f, 0x3e, 0x73, 0x63, 0x9d, 0xbe, 0x74, 0x11, 0x94, 0x3d,
  0x4c, 0xb1, 0xdd, 0xbd, 0x8a, 0x32, 0x86, 0xbe, 0xba, 0x38, 0x78, 0x3e,
  0x37, 0x0d, 0xaa, 0xbe, 0xba, 0xef, 0x60, 0xbe, 0xf9, 0x53, 0xd7, 0xbe,
  0xa4, 0x65, 0xb8, 0x3d, 0x34, 0x7e, 0x0d, 0xbf, 0x80, 0x57, 0x54, 0x3c,
  0xe3, 0x23, 0x97, 0x3e, 0x69, 0xb2, 0x3c, 0xbe, 0x4d, 0x7e, 0x1b, 0xbe,
  0x2b, 0x29, 0x55, 0x3e, 0x47, 0x82, 0x24, 0xbf, 0x22, 0xe2, 0x03, 0x3d,
  0x5d, 0xe9, 0x95, 0x3e, 0xbc, 0xb5, 0x89, 0x3d, 0x00, 0xa3, 0xd5, 0x3c,
  0xe0, 0xfb, 0x12, 0xbc, 0xb5, 0xfc, 0xb8, 0x3e, 0x0f, 0xef, 0x0e, 0x3f,
  0x8c, 0x6c, 0x4a, 0xbd, 0x00, 0x99, 0xaa, 0xbc, 0x8e, 0x86, 0xb3, 0x3b,
  0x20, 0x15, 0x2b, 0x3c, 0x4e, 0x9f, 0xaa, 0xbe, 0xf4, 0xb7, 0x86, 0xbd,
  0x9a, 0xa9, 0x05, 0xbe, 0xda, 0x9f, 0x21, 0xbd, 0x59, 0x60, 0xa1, 0xba,
  0x45, 0x12, 0x8d, 0xbf, 0x81, 0xa7, 0xbc, 0xbe, 0x86, 0x94, 0x6b, 0x3e,
  0x00, 0x2f, 0x74, 0xbd, 0x16, 0xa1, 0x64, 0x3e, 0xd8, 0x34, 0x55, 0xbe,
  0xd7, 0xec, 0x32, 0xbe, 0xdf, 0x67, 0x1c, 0x3f, 0xe9, 0xb4, 0xd8, 0x3e,
  0x8c, 0xb3, 0x0c, 0xbf, 0xfc, 0xad, 0xb1, 0x3d, 0x07, 0xeb, 0xd3, 0x3e,
  0x6c, 0x78, 0xad, 0xbd, 0x2b, 0xe4, 0xe0, 0x3f, 0x58, 0xfa, 0xc0, 0x3e,
  0x71, 0x07, 0xf8, 0xbe, 0x62, 0x34, 0x01, 0x3f, 0xe7, 0x79, 0x59, 0xbe,
  0x13, 0x20, 0x43, 0xbe, 0x24, 0x83, 0x8f, 0xbe, 0x00, 0x07, 0x43, 0x3d,
  0xc0, 0x91, 0xe8, 0xbc, 0x51, 0xaa, 0xe9, 0xbc, 0xd8, 0x00, 0xbf, 0x3e,
  0x88, 0xda, 0xce, 0xbe, 0x4b, 0xdc, 0x95, 0x3d, 0x7f, 0x8e, 0xa4, 0x3e,
  0x55, 0xe0, 0xd6, 0x3e, 0xe3, 0x57, 0x9e, 0xbe, 0xdf, 0xaf, 0x47, 0xbe,
  0xa1, 0xad, 0xff, 0xbd, 0xc4, 0x34, 0x8d, 0x3d, 0xab, 0x2e, 0xd5, 0xbd,
  0x80, 0x89, 0x50, 0x3d, 0xec, 0x4f, 0xa9, 0x3d, 0x22, 0xc4, 0x0b, 0xbe,
  0x08, 0xb7, 0x2b, 0xbd, 0x91, 0xc5, 0x46, 0xbe, 0x9e, 0x98, 0xc2, 0xbd,
  0x35, 0x37, 0x7c, 0x3e, 0x2c, 0x4e, 0x9d, 0x3d, 0x3b, 0xe6, 0xbd, 0xbe,
  0xcc, 0x81, 0xdc, 0x3d, 0xc0, 0xa8, 0x60, 0x3d, 0x1f, 0xdd, 0x45, 0xbe,
  0x90, 0x1a, 0xb9, 0x3e, 0x5f, 0x9e, 0xb9, 0xbe, 0xbc, 0x89, 0x8c, 0x3d,
  0xf2, 0x33, 0x4c, 0x3e, 0x6e, 0x71, 0x64, 0x3e, 0x80, 0xfa, 0x22, 0xbc,
  0xd2, 0x40, 0x59, 0x3e, 0x68, 0xd6, 0x0e, 0x3d, 0x38, 0x8b, 0x7f, 0x3d,
  0xfa, 0xc7, 0x83, 0xbd, 0x72, 0x05, 0xb5, 0xbe, 0x38, 0x54, 0xa3, 0xbe,
  0xb5, 0x33, 0xbd, 0xbe, 0x56, 0x26, 0x2e, 0x3e, 0x47, 0xd7, 0x9c, 0x3e,
  0x34, 0xb9, 0xba, 0xbe, 0x1d, 0x35, 0x70, 0x3e, 0xda, 0x4b, 0xbd, 0xbe,
  0xe8, 0xc7, 0xb9, 0xbe, 0xd5, 0xfb, 0x71, 0xbd, 0x80, 0xd2, 0x07, 0x3c,
  0xd0, 0x32, 0xaa, 0x3c, 0x8d, 0x06, 0xc0, 0xbe, 0x98, 0x6a, 0xc2, 0xbd,
  0x95, 0xc1, 0x78, 0xbe, 0x48, 0xf5, 0x10, 0xbf, 0x4c, 0x0c, 0x17, 0x3e,
  0x14, 0x03, 0xc6, 0xbe, 0xf6, 0x3b, 0xe2, 0x3c, 0xc1, 0xf7, 0x6c, 0xbe,
  0xa4, 0x44, 0xf8, 0x3d, 0x94, 0x51, 0xf8, 0x3d, 0xe2, 0xe9, 0x17, 0x3e,
  0x4c, 0x84, 0xcb, 0xbd, 0x6d, 0x6d, 0x78, 0x3e, 0xea, 0x60, 0x8d, 0xbe,
  0xdf, 0x00, 0xce, 0x3e, 0x10, 0xa3, 0x80, 0xbc, 0x16, 0x99, 0x28, 0x3e,
  0xfd, 0xfb, 0xd5, 0x3e, 0xc1, 0x99, 0xd9, 0x3e, 0x9b, 0x7e, 0xd4, 0xbe,
  0x03, 0x39, 0x1d, 0xbe, 0x97, 0xcd, 0xc1, 0x3e, 0x87, 0x17, 0x07, 0x3e,
  0x85, 0x72, 0x8a, 0x3e, 0x44, 0xf2, 0xca, 0x3d, 0x26, 0xfe, 0x37, 0xbe,
  0x16, 0xfc, 0xd7, 0xbe, 0x8b, 0x97, 0x81, 0xbe, 0x19, 0x48, 0x9b, 0x3e,
  0xbb, 0xb5, 0x9d, 0xbe, 0x9c, 0x79, 0xcf, 0xbd, 0x0a, 0x51, 0x5c, 0x3e,
  0x04, 0xb7, 0x99, 0x3d, 0x30, 0xee, 0x2f, 0x3d, 0xdc, 0x9a, 0x5a, 0xbe,
  0x48, 0xf4, 0x8e, 0xbd, 0x97, 0xac, 0x94, 0x3e, 0xe5, 0x9c, 0x9b, 0x3e,
  0xaa, 0xc3, 0x83, 0x3c, 0x00, 0x74, 0x87, 0x3a, 0x37, 0xd1, 0x8f, 0x3e,
  0x2c, 0xfc, 0xcc, 0xbe, 0x2b, 0x31, 0x60, 0xbe, 0xf8, 0x8d, 0xb2, 0xbf,
  0x6f, 0xc5, 0xcd, 0xbe, 0x1a, 0xb4, 0x6f, 0x3d, 0x4e, 0x2c, 0x50, 0x3e,
  0xa4, 0xda, 0x9d, 0xbe, 0xa7, 0x77, 0x8a, 0x3e, 0xce, 0xc3, 0x1f, 0x3e,
  0xb3, 0xee, 0xb3, 0xbe, 0xdb, 0xcc, 0x4b, 0xbe, 0x14, 0x3b, 0x6a, 0xbe,
  0x80, 0x20, 0x03, 0xbc, 0xa0, 0xc2, 0xc3, 0x38, 0xd8, 0x46, 0x02, 0xbd,
  0xfa, 0x75, 0x01, 0x3e, 0x44, 0xe3, 0x9b, 0xbd, 0xf6, 0x08, 0x2f, 0xbe,
  0x91, 0x45, 0x7f, 0x3d, 0x62, 0x59, 0x8c, 0xbe, 0x77, 0x0f, 0xad, 0x3e,
  0xd5, 0x14, 0xc9, 0x3e, 0xdc, 0xe9, 0xd5, 0x3d, 0x20, 0x2c, 0x51, 0xbc,
  0xdb, 0x4d, 0xdd, 0x3e, 0x07, 0xf3, 0x9b, 0x3e, 0x96, 0x8c, 0xdb, 0xbe,
  0x38, 0x2e, 0xb0, 0xbd, 0xaa, 0x68, 0x1f, 0x3e, 0xd8, 0xcd, 0xbc, 0xbd,
  0xf5, 0xcf, 0xc0, 0x3e, 0xb6, 0xf7, 0x1c, 0x3e, 0x9e, 0x95, 0x6d, 0x3e,
  0xfc, 0x8e, 0xb8, 0xbd, 0x51, 0xdc, 0xb4, 0xbe, 0xa7, 0x49, 0x94, 0x3e,
  0x75, 0xf9, 0x9b, 0x3e, 0x30, 0xaa, 0x00, 0xbd, 0xd9, 0x66, 0x70, 0xbe,
  0xbc, 0x0c, 0xd0, 0x3d, 0x5a, 0xf8, 0x55, 0x3e, 0xde, 0xf9, 0x4b, 0xbe,
  0x1b, 0xff, 0x8d, 0xbe, 0xcc, 0xd1, 0x23, 0xbe, 0x96, 0xc2, 0x5b, 0x3e,
  0xa9, 0x23, 0xdb, 0xbd, 0x28, 0xdf, 0x08, 0xbd, 0x00, 0x3d, 0x91, 0xbe,
  0x8b, 0x6c, 0xb6, 0x3e, 0xd7, 0xa1, 0x21, 0xbd, 0x53, 0x93, 0xaf, 0xbe,
  0xe8, 0xa8, 0x46, 0xbd, 0x00, 0x00, 0x00, 0x00, 0x86, 0xfd, 0xff, 0xff,
  0x04, 0x00, 0x00, 0x00, 0x00, 0x02, 0x00, 0x00, 0xe0, 0x7a, 0x63, 0xbd,
  0xe2, 0x29, 0x10, 0xc0, 0x95, 0x10, 0x32, 0xbb, 0x51, 0x7b, 0x35, 0x40,
  0x12, 0x19, 0x10, 0x3c, 0x14, 0x91, 0xc7, 0x3e, 0x1f, 0xdf, 0x15, 0x3f,
  0xd2, 0x89, 0xc4, 0x3d, 0x60, 0x0b, 0x92, 0xbd, 0xe0, 0xf5, 0x92, 0x3d,
  0xc0, 0x52, 0xb9, 0xbc, 0xc0, 0xb9, 0x7f, 0x3d, 0x00, 0x6d, 0x32, 0xbd,
  0x90, 0xbe, 0x86, 0xbd, 0x14, 0xf5, 0x9a, 0x3e, 0x38, 0x04, 0x89, 0x3e,
  0x1c, 0x97, 0x88, 0xbe, 0x48, 0x58, 0xfa, 0xbe, 0x98, 0xe3, 0x1d, 0xbe,
  0x7c, 0xcd, 0x9a, 0xbe, 0x00, 0x00, 0x90, 0xb9, 0x40, 0x45, 0xb0, 0x3e,
  0x00, 0x10, 0xa3, 0xbb, 0x74, 0xec, 0xaf, 0xbe, 0x10, 0x78, 0xa9, 0xbd,
  0xa8, 0xf5, 0x7b, 0xbe, 0xdc, 0xdc, 0x9d, 0x3e, 0x48, 0x33, 0xfd, 0xbe,
  0xc4, 0xed, 0x96, 0x3e, 0xb4, 0x6c, 0xad, 0xbe, 0x88, 0xd9, 0x6b, 0xbe,
  0x54, 0xb8, 0xf2, 0xbe, 0x00, 0x31, 0xea, 0xbc, 0xc4, 0x1e, 0xbb, 0xbe,
  0x00, 0x38, 0x97, 0xbd, 0xc4, 0x51, 0x95, 0x3e, 0x34, 0x54, 0xfe, 0xbe,
  0x40, 0x28, 0x10, 0x3d, 0x10, 0x5a, 0x0a, 0xbe, 0xd4, 0x62, 0xed, 0x3e,
  0x7c, 0xbf, 0x8b, 0xbe, 0x98, 0xf2, 0x0f, 0xbe, 0xc0, 0xda, 0x16, 0xbe,
  0xe0, 0x08, 0x81, 0xbd, 0x30, 0x31, 0x80, 0x3e, 0xf4, 0x1d, 0xe6, 0x3e,
  0x2c, 0xc3, 0x95, 0xbe, 0xd0, 0x7b, 0xdc, 0x3e, 0x15, 0x8e, 0x73, 0x3b,
  0xc5, 0xbe, 0x37, 0x3e, 0x6a, 0x6e, 0x43, 0x3c, 0xae, 0x11, 0x1e, 0xbe,
  0xf0, 0xc1, 0xeb, 0xbb, 0x40, 0x3b, 0xdc, 0xbe, 0x6d, 0x3a, 0xb4, 0x40,
  0xe2, 0x5b, 0xde, 0xbd, 0xc4, 0x02, 0x06, 0xbe, 0xb3, 0x87, 0x61, 0x3d,
  0x6a, 0x4a, 0xa6, 0xbe, 0x71, 0x53, 0x19, 0xbf, 0x7c, 0x7d, 0xe5, 0x3d,
  0xb8, 0x76, 0x59, 0x3e, 0x5c, 0x66, 0x5e, 0x40, 0xd2, 0x6e, 0xe4, 0x3d,
  0x98, 0xc1, 0x6b, 0xbe, 0xf4, 0x9e, 0xc0, 0x3e, 0x68, 0xb0, 0x71, 0x3e,
  0xe0, 0xdc, 0x61, 0x3d, 0x80, 0x1d, 0x57, 0xbd, 0xcc, 0x6a, 0xd7, 0x3e,
  0xc0, 0xff, 0xd9, 0x3d, 0xd8, 0x00, 0x0c, 0xbe, 0x51, 0x18, 0x2a, 0x3e,
  0xb8, 0x4e, 0xab, 0xbf, 0x56, 0x82, 0xe1, 0x3e, 0x4e, 0xa8, 0x5f, 0xc0,
  0xaf, 0x0a, 0x02, 0xbe, 0x90, 0x77, 0xe0, 0x3d, 0x3f, 0x59, 0x08, 0xc0,
  0x93, 0x35, 0xc6, 0xbf, 0xd8, 0x03, 0x95, 0xbe, 0xcc, 0x53, 0x90, 0xbe,
  0xc0, 0x40, 0x5f, 0xbe, 0xec, 0x10, 0xa1, 0xbe, 0x50, 0xce, 0xe7, 0xbd,
  0x40, 0x49, 0x6e, 0x3d, 0x30, 0xac, 0xe7, 0xbd, 0x00, 0xa2, 0x48, 0x3c,
  0x88, 0xa8, 0x3f, 0xbe, 0x20, 0x8e, 0x27, 0x3d, 0xa0, 0x6e, 0xda, 0x3d,
  0xb0, 0x47, 0x6e, 0x3e, 0xa0, 0x84, 0x3b, 0xbd, 0x80, 0x6a, 0x83, 0x3e,
  0xa0, 0xb7, 0xdc, 0xbd, 0x00, 0xcd, 0x17, 0x3c, 0xb0, 0xd0, 0xf5, 0xbd,
  0xc0, 0x67, 0xbb, 0x3e, 0x28, 0xaa, 0xf1, 0x3e, 0x0c, 0x5a, 0xc7, 0xbe,
  0xf0, 0x8e, 0x7a, 0x3e, 0xa0, 0x18, 0x95, 0xbe, 0xec, 0x58, 0xbe, 0xbe,
  0xc0, 0x7d, 0xe0, 0xbd, 0x26, 0x4a, 0x38, 0x3d, 0x5a, 0xbd, 0x14, 0xbf,
  0x1a, 0x90, 0xa0, 0x3d, 0xeb, 0x02, 0xd4, 0xc0, 0x6b, 0x4e, 0xef, 0xbd,
  0x08, 0xb4, 0xbe, 0x3e, 0x85, 0x9e, 0x9d, 0x3c, 0x94, 0xc3, 0xad, 0xbd,
  0xe7, 0xc5, 0xef, 0xbd, 0x2c, 0x04, 0x34, 0x3d, 0x47, 0xc5, 0x97, 0xbe,
  0xd5, 0x03, 0x5a, 0xbf, 0xfc, 0xe4, 0x60, 0x3d, 0x40, 0xf5, 0xe2, 0x3e,
  0x78, 0xdd, 0x81, 0x40, 0xab, 0xb6, 0xda, 0x3e, 0x8f, 0x42, 0x91, 0x3c,
  0xce, 0xd4, 0x62, 0xbf, 0x66, 0x91, 0x5c, 0x3e, 0x7a, 0xd7, 0x9f, 0x3d,
  0x60, 0x8e, 0x3e, 0xbd, 0xb0, 0xf3, 0xc9, 0x3e, 0x40, 0x93, 0x14, 0xc0,
  0xe0, 0xc6, 0x64, 0xbe, 0x00, 0x00, 0x00, 0x00, 0x96, 0xff, 0xff, 0xff,
  0x04, 0x00, 0x00, 0x00, 0x04, 0x00, 0x00, 0x00, 0x81, 0xac, 0xb0, 0x3f,
  0xa6, 0xff, 0xff, 0xff, 0x04, 0x00, 0x00, 0x00, 0x40, 0x00, 0x00, 0x00,
  0xf0, 0x4a, 0xf4, 0x3e, 0xe2, 0x89, 0x74, 0xbe, 0xcc, 0x4a, 0x51, 0xbd,
  0x91, 0xcb, 0xa3, 0xbe, 0x96, 0xc3, 0x38, 0xbe, 0x80, 0xf3, 0xcd, 0x3e,
  0xc8, 0xec, 0x0a, 0xc0, 0x46, 0x71, 0x73, 0x3e, 0xf5, 0x19, 0x84, 0xbd,
  0x59, 0xc7, 0xb0, 0xbd, 0xce, 0xb9, 0x19, 0xbe, 0x8e, 0x31, 0x40, 0xbe,
  0x10, 0xff, 0x85, 0xbd, 0x22, 0x3e, 0xcf, 0xbb, 0x00, 0x00, 0x00, 0x00,
  0x7c, 0x73, 0x38, 0xbc, 0x00, 0x00, 0x00, 0x00, 0x00, 0x00, 0x00, 0x00,
  0x00, 0x00, 0x00, 0x00, 0x00, 0x00, 0x06, 0x00, 0x08, 0x00, 0x04, 0x00,
  0x06, 0x00, 0x00, 0x00, 0x04, 0x00, 0x00, 0x00, 0x40, 0x00, 0x00, 0x00,
  0xd5, 0xdb, 0xa7, 0xbe, 0x00, 0x00, 0x00, 0x00, 0x00, 0x00, 0x00, 0x00,
  0x00, 0x00, 0x00, 0x00, 0x00, 0x00, 0x00, 0x00, 0x00, 0x00, 0x00, 0x00,
  0x45, 0x94, 0xcb, 0xbd, 0x08, 0x7a, 0xa8, 0xbe, 0x00, 0x00, 0x00, 0x00,
  0x97, 0x89, 0x95, 0xbe, 0x00, 0x00, 0x00, 0x00, 0x00, 0x00, 0x00, 0x00,
  0x00, 0x00, 0x00, 0x00, 0xea, 0xd9, 0xcb, 0xbe, 0x78, 0xb9, 0x07, 0xbf,
  0xd6, 0x21, 0x0b, 0xbd, 0x00, 0x00, 0x00, 0x00, 0x00, 0x00, 0x00, 0x00,
  0x00, 0x00, 0x00, 0x00, 0xbc, 0xfb, 0xff, 0xff, 0x00, 0x00, 0x00, 0x00,
  0x00, 0x00, 0x00, 0x00, 0x00, 0x00, 0x00, 0x00, 0xcc, 0xfb, 0xff, 0xff,
  0x0f, 0x00, 0x00, 0x00, 0x4d, 0x4c, 0x49, 0x52, 0x20, 0x43, 0x6f, 0x6e,
  0x76, 0x65, 0x72, 0x74, 0x65, 0x64, 0x2e, 0x00, 0x01, 0x00, 0x00, 0x00,
  0x14, 0x00, 0x00, 0x00, 0x00, 0x00, 0x0e, 0x00, 0x18, 0x00, 0x04, 0x00,
  0x08, 0x00, 0x0c, 0x00, 0x10, 0x00, 0x14, 0x00, 0x0e, 0x00, 0x00, 0x00,
  0x00, 0x01, 0x00, 0x00, 0xf4, 0x00, 0x00, 0x00, 0xe8, 0x00, 0x00, 0x00,
  0x14, 0x00, 0x00, 0x00, 0x04, 0x00, 0x00, 0x00, 0x04, 0x00, 0x00, 0x00,
  0x6d, 0x61, 0x69, 0x6e, 0x00, 0x00, 0x00, 0x00, 0x03, 0x00, 0x00, 0x00,
  0x90, 0x00, 0x00, 0x00, 0x48, 0x00, 0x00, 0x00, 0x04, 0x00, 0x00, 0x00,
  0xce, 0xff, 0xff, 0xff, 0x00, 0x00, 0x00, 0x08, 0x18, 0x00, 0x00, 0x00,
  0x0c, 0x00, 0x00, 0x00, 0x04, 0x00, 0x00, 0x00, 0x44, 0xfc, 0xff, 0xff,
  0x01, 0x00, 0x00, 0x00, 0x09, 0x00, 0x00, 0x00, 0x03, 0x00, 0x00, 0x00,
  0x08, 0x00, 0x00, 0x00, 0x06, 0x00, 0x00, 0x00, 0x03, 0x00, 0x00, 0x00,
  0x00, 0x00, 0x0e, 0x00, 0x14, 0x00, 0x00, 0x00, 0x08, 0x00, 0x0c, 0x00,
  0x07, 0x00, 0x10, 0x00, 0x0e, 0x00, 0x00, 0x00, 0x00, 0x00, 0x00, 0x08,
  0x1c, 0x00, 0x00, 0x00, 0x10, 0x00, 0x00, 0x00, 0x04, 0x00, 0x00, 0x00,
  0xba, 0xff, 0xff, 0xff, 0x00, 0x00, 0x00, 0x01, 0x01, 0x00, 0x00, 0x00,
  0x08, 0x00, 0x00, 0x00, 0x03, 0x00, 0x00, 0x00, 0x07, 0x00, 0x00, 0x00,
  0x05, 0x00, 0x00, 0x00, 0x02, 0x00, 0x00, 0x00, 0x00, 0x00, 0x0e, 0x00,
  0x16, 0x00, 0x00, 0x00, 0x08, 0x00, 0x0c, 0x00, 0x07, 0x00, 0x10, 0x00,
  0x0e, 0x00, 0x00, 0x00, 0x00, 0x00, 0x00, 0x08, 0x24, 0x00, 0x00, 0x00,
  0x18, 0x00, 0x00, 0x00, 0x0c, 0x00, 0x00, 0x00, 0x00, 0x00, 0x06, 0x00,
  0x08, 0x00, 0x07, 0x00, 0x06, 0x00, 0x00, 0x00, 0x00, 0x00, 0x00, 0x01,
  0x01, 0x00, 0x00, 0x00, 0x07, 0x00, 0x00, 0x00, 0x03, 0x00, 0x00, 0x00,
  0x00, 0x00, 0x00, 0x00, 0x04, 0x00, 0x00, 0x00, 0x01, 0x00, 0x00, 0x00,
  0x01, 0x00, 0x00, 0x00, 0x09, 0x00, 0x00, 0x00, 0x01, 0x00, 0x00, 0x00,
  0x00, 0x00, 0x00, 0x00, 0x0a, 0x00, 0x00, 0x00, 0xe8, 0x02, 0x00, 0x00,
  0x84, 0x02, 0x00, 0x00, 0x30, 0x02, 0x00, 0x00, 0xdc, 0x01, 0x00, 0x00,
  0x94, 0x01, 0x00, 0x00, 0x4c, 0x01, 0x00, 0x00, 0x04, 0x01, 0x00, 0x00,
  0xa0, 0x00, 0x00, 0x00, 0x3c, 0x00, 0x00, 0x00, 0x04, 0x00, 0x00, 0x00,
  0x4e, 0xfd, 0xff, 0xff, 0x24, 0x00, 0x00, 0x00, 0x0a, 0x00, 0x00, 0x00,
  0x0c, 0x00, 0x00, 0x00, 0x04, 0x00, 0x00, 0x00, 0x40, 0xfd, 0xff, 0xff,
  0x08, 0x00, 0x00, 0x00, 0x49, 0x64, 0x65, 0x6e, 0x74, 0x69, 0x74, 0x79,
  0x00, 0x00, 0x00, 0x00, 0x02, 0x00, 0x00, 0x00, 0x01, 0x00, 0x00, 0x00,
  0x01, 0x00, 0x00, 0x00, 0x82, 0xfd, 0xff, 0xff, 0x50, 0x00, 0x00, 0x00,
  0x09, 0x00, 0x00, 0x00, 0x0c, 0x00, 0x00, 0x00, 0x04, 0x00, 0x00, 0x00,
  0x74, 0xfd, 0xff, 0xff, 0x36, 0x00, 0x00, 0x00, 0x73, 0x65, 0x71, 0x75,
  0x65, 0x6e, 0x74, 0x69, 0x61, 0x6c, 0x5f, 0x31, 0x2f, 0x64, 0x65, 0x6e,
  0x73, 0x65, 0x5f, 0x34, 0x2f, 0x52, 0x65, 0x6c, 0x75, 0x3b, 0x73, 0x65,
  0x71, 0x75, 0x65, 0x6e, 0x74, 0x69, 0x61, 0x6c, 0x5f, 0x31, 0x2f, 0x64,
  0x65, 0x6e, 0x73, 0x65, 0x5f, 0x34, 0x2f, 0x42, 0x69, 0x61, 0x73, 0x41,
  0x64, 0x64, 0x00, 0x00, 0x02, 0x00, 0x00, 0x00, 0x01, 0x00, 0x00, 0x00,
  0x10, 0x00, 0x00, 0x00, 0xe2, 0xfd, 0xff, 0xff, 0x50, 0x00, 0x00, 0x00,
  0x08, 0x00, 0x00, 0x00, 0x0c, 0x00, 0x00, 0x00, 0x04, 0x00, 0x00, 0x00,
  0xd4, 0xfd, 0xff, 0xff, 0x36, 0x00, 0x00, 0x00, 0x73, 0x65, 0x71, 0x75,
  0x65, 0x6e, 0x74, 0x69, 0x61, 0x6c, 0x5f, 0x31, 0x2f, 0x64, 0x65, 0x6e,
  0x73, 0x65, 0x5f, 0x33, 0x2f, 0x52, 0x65, 0x6c, 0x75, 0x3b, 0x73, 0x65,
  0x71, 0x75, 0x65, 0x6e, 0x74, 0x69, 0x61, 0x6c, 0x5f, 0x31, 0x2f, 0x64,
  0x65, 0x6e, 0x73, 0x65, 0x5f, 0x33, 0x2f, 0x42, 0x69, 0x61, 0x73, 0x41,
  0x64, 0x64, 0x00, 0x00, 0x02, 0x00, 0x00, 0x00, 0x01, 0x00, 0x00, 0x00,
  0x10, 0x00, 0x00, 0x00, 0x42, 0xfe, 0xff, 0xff, 0x34, 0x00, 0x00, 0x00,
  0x07, 0x00, 0x00, 0x00, 0x0c, 0x00, 0x00, 0x00, 0x04, 0x00, 0x00, 0x00,
  0x34, 0xfe, 0xff, 0xff, 0x1b, 0x00, 0x00, 0x00, 0x73, 0x65, 0x71, 0x75,
  0x65, 0x6e, 0x74, 0x69, 0x61, 0x6c, 0x5f, 0x31, 0x2f, 0x64, 0x65, 0x6e,
  0x73, 0x65, 0x5f, 0x35, 0x2f, 0x4d, 0x61, 0x74, 0x4d, 0x75, 0x6c, 0x00,
  0x02, 0x00, 0x00, 0x00, 0x01, 0x00, 0x00, 0x00, 0x10, 0x00, 0x00, 0x00,
  0x86, 0xfe, 0xff, 0xff, 0x34, 0x00, 0x00, 0x00, 0x06, 0x00, 0x00, 0x00,
  0x0c, 0x00, 0x00, 0x00, 0x04, 0x00, 0x00, 0x00, 0x78, 0xfe, 0xff, 0xff,
  0x1b, 0x00, 0x00, 0x00, 0x73, 0x65, 0x71, 0x75, 0x65, 0x6e, 0x74, 0x69,
  0x61, 0x6c, 0x5f, 0x31, 0x2f, 0x64, 0x65, 0x6e, 0x73, 0x65, 0x5f, 0x34,
  0x2f, 0x4d, 0x61, 0x74, 0x4d, 0x75, 0x6c, 0x00, 0x02, 0x00, 0x00, 0x00,
  0x10, 0x00, 0x00, 0x00, 0x10, 0x00, 0x00, 0x00, 0xca, 0xfe, 0xff, 0xff,
  0x34, 0x00, 0x00, 0x00, 0x05, 0x00, 0x00, 0x00, 0x0c, 0x00, 0x00, 0x00,
  0x04, 0x00, 0x00, 0x00, 0xbc, 0xfe, 0xff, 0xff, 0x1b, 0x00, 0x00, 0x00,
  0x73, 0x65, 0x71, 0x75, 0x65, 0x6e, 0x74, 0x69, 0x61, 0x6c, 0x5f, 0x31,
  0x2f, 0x64, 0x65, 0x6e, 0x73, 0x65, 0x5f, 0x33, 0x2f, 0x4d, 0x61, 0x74,
  0x4d, 0x75, 0x6c, 0x00, 0x02, 0x00, 0x00, 0x00, 0x10, 0x00, 0x00, 0x00,
  0x08, 0x00, 0x00, 0x00, 0x0e, 0xff, 0xff, 0xff, 0x44, 0x00, 0x00, 0x00,
  0x04, 0x00, 0x00, 0x00, 0x0c, 0x00, 0x00, 0x00, 0x04, 0x00, 0x00, 0x00,
  0x00, 0xff, 0xff, 0xff, 0x2b, 0x00, 0x00, 0x00, 0x73, 0x65, 0x71, 0x75,
  0x65, 0x6e, 0x74, 0x69, 0x61, 0x6c, 0x5f, 0x31, 0x2f, 0x64, 0x65, 0x6e,
  0x73, 0x65, 0x5f, 0x35, 0x2f, 0x42, 0x69, 0x61, 0x73, 0x41, 0x64, 0x64,
  0x2f, 0x52, 0x65, 0x61, 0x64, 0x56, 0x61, 0x72, 0x69, 0x61, 0x62, 0x6c,
  0x65, 0x4f, 0x70, 0x00, 0x01, 0x00, 0x00, 0x00, 0x01, 0x00, 0x00, 0x00,
  0x5e, 0xff, 0xff, 0xff, 0x44, 0x00, 0x00, 0x00, 0x03, 0x00, 0x00, 0x00,
  0x0c, 0x00, 0x00, 0x00, 0x04, 0x00, 0x00, 0x00, 0x50, 0xff, 0xff, 0xff,
  0x2b, 0x00, 0x00, 0x00, 0x73, 0x65, 0x71, 0x75, 0x65, 0x6e, 0x74, 0x69,
  0x61, 0x6c, 0x5f, 0x31, 0x2f, 0x64, 0x65, 0x6e, 0x73, 0x65, 0x5f, 0x34,
  0x2f, 0x42, 0x69, 0x61, 0x73, 0x41, 0x64, 0x64, 0x2f, 0x52, 0x65, 0x61,
  0x64, 0x56, 0x61, 0x72, 0x69, 0x61, 0x62, 0x6c, 0x65, 0x4f, 0x70, 0x00,
  0x01, 0x00, 0x00, 0x00, 0x10, 0x00, 0x00, 0x00, 0xae, 0xff, 0xff, 0xff,
  0x44, 0x00, 0x00, 0x00, 0x02, 0x00, 0x00, 0x00, 0x0c, 0x00, 0x00, 0x00,
  0x04, 0x00, 0x00, 0x00, 0xa0, 0xff, 0xff, 0xff, 0x2b, 0x00, 0x00, 0x00,
  0x73, 0x65, 0x71, 0x75, 0x65, 0x6e, 0x74, 0x69, 0x61, 0x6c, 0x5f, 0x31,
  0x2f, 0x64, 0x65, 0x6e, 0x73, 0x65, 0x5f, 0x33, 0x2f, 0x42, 0x69, 0x61,
  0x73, 0x41, 0x64, 0x64, 0x2f, 0x52, 0x65, 0x61, 0x64, 0x56, 0x61, 0x72,
  0x69, 0x61, 0x62, 0x6c, 0x65, 0x4f, 0x70, 0x00, 0x01, 0x00, 0x00, 0x00,
  0x10, 0x00, 0x00, 0x00, 0x00, 0x00, 0x0e, 0x00, 0x14, 0x00, 0x04, 0x00,
  0x00, 0x00, 0x08, 0x00, 0x0c, 0x00, 0x10, 0x00, 0x0e, 0x00, 0x00, 0x00,
  0x24, 0x00, 0x00, 0x00, 0x01, 0x00, 0x00, 0x00, 0x10, 0x00, 0x00, 0x00,
  0x08, 0x00, 0x00, 0x00, 0x04, 0x00, 0x04, 0x00, 0x04, 0x00, 0x00, 0x00,
  0x07, 0x00, 0x00, 0x00, 0x69, 0x6e, 0x70, 0x75, 0x74, 0x5f, 0x31, 0x00,
  0x02, 0x00, 0x00, 0x00, 0x01, 0x00, 0x00, 0x00, 0x08, 0x00, 0x00, 0x00,
  0x01, 0x00, 0x00, 0x00, 0x10, 0x00, 0x00, 0x00, 0x00, 0x00, 0x0a, 0x00,
  0x0c, 0x00, 0x07, 0x00, 0x00, 0x00, 0x08, 0x00, 0x0a, 0x00, 0x00, 0x00,
  0x00, 0x00, 0x00, 0x09, 0x03, 0x00, 0x00, 0x00
};
unsigned int humidity_predictor_tflite_len = 3248;
