unsigned char temperature_predictor_tflite[] = {
  0x20, 0x00, 0x00, 0x00, 0x54, 0x46, 0x4c, 0x33, 0x00, 0x00, 0x00, 0x00,
  0x00, 0x00, 0x12, 0x00, 0x1c, 0x00, 0x04, 0x00, 0x08, 0x00, 0x0c, 0x00,
  0x10, 0x00, 0x14, 0x00, 0x00, 0x00, 0x18, 0x00, 0x12, 0x00, 0x00, 0x00,
  0x03, 0x00, 0x00, 0x00, 0x88, 0x0c, 0x00, 0x00, 0x28, 0x08, 0x00, 0x00,
  0x10, 0x08, 0x00, 0x00, 0x3c, 0x00, 0x00, 0x00, 0x04, 0x00, 0x00, 0x00,
  0x01, 0x00, 0x00, 0x00, 0x0c, 0x00, 0x00, 0x00, 0x08, 0x00, 0x0c, 0x00,
  0x04, 0x00, 0x08, 0x00, 0x08, 0x00, 0x00, 0x00, 0x08, 0x00, 0x00, 0x00,
  0x0b, 0x00, 0x00, 0x00, 0x13, 0x00, 0x00, 0x00, 0x6d, 0x69, 0x6e, 0x5f,
  0x72, 0x75, 0x6e, 0x74, 0x69, 0x6d, 0x65, 0x5f, 0x76, 0x65, 0x72, 0x73,
  0x69, 0x6f, 0x6e, 0x00, 0x0c, 0x00, 0x00, 0x00, 0xc8, 0x07, 0x00, 0x00,
  0xb4, 0x07, 0x00, 0x00, 0x58, 0x07, 0x00, 0x00, 0xf4, 0x06, 0x00, 0x00,
  0xe0, 0x06, 0x00, 0x00, 0xcc, 0x04, 0x00, 0x00, 0xb8, 0x00, 0x00, 0x00,
  0x64, 0x00, 0x00, 0x00, 0x58, 0x00, 0x00, 0x00, 0x44, 0x00, 0x00, 0x00,
  0x30, 0x00, 0x00, 0x00, 0x04, 0x00, 0x00, 0x00, 0xd6, 0xf8, 0xff, 0xff,
  0x04, 0x00, 0x00, 0x00, 0x10, 0x00, 0x00, 0x00, 0x31, 0x2e, 0x35, 0x2e,
  0x30, 0x00, 0x00, 0x00, 0x00, 0x00, 0x00, 0x00, 0x00, 0x00, 0x00, 0x00,
  0x00, 0x00, 0x00, 0x00, 0x00, 0x00, 0x00, 0x00, 0x00, 0x00, 0x00, 0x00,
  0x3c, 0xf4, 0xff, 0xff, 0x00, 0x00, 0x00, 0x00, 0x00, 0x00, 0x00, 0x00,
  0x00, 0x00, 0x00, 0x00, 0x4c, 0xf4, 0xff, 0xff, 0x00, 0x00, 0x00, 0x00,
  0x00, 0x00, 0x00, 0x00, 0x00, 0x00, 0x00, 0x00, 0x5c, 0xf4, 0xff, 0xff,
  0x00, 0x00, 0x00, 0x00, 0x26, 0xf9, 0xff, 0xff, 0x04, 0x00, 0x00, 0x00,
  0x40, 0x00, 0x00, 0x00, 0x14, 0x99, 0x3d, 0xbe, 0xa8, 0xbc, 0x0d, 0xbb,
  0xc2, 0x91, 0x98, 0x3a, 0xe0, 0x72, 0x41, 0x3d, 0xaf, 0xc8, 0xd3, 0x3e,
  0x04, 0x95, 0xb7, 0x3c, 0x65, 0x4c, 0x6d, 0xbd, 0x38, 0x6e, 0xe7, 0x3d,
  0x1f, 0x96, 0x11, 0x3d, 0x79, 0x2b, 0x3f, 0xbb, 0xe7, 0x59, 0x45, 0x3b,
  0x6c, 0x00, 0x1a, 0xbe, 0xe8, 0x4c, 0x56, 0xbe, 0x2c, 0x30, 0x07, 0xbb,
  0x60, 0x4d, 0x07, 0x39, 0x89, 0xbd, 0x7d, 0x3c, 0x00, 0x00, 0x00, 0x00,
  0x76, 0xf9, 0xff, 0xff, 0x04, 0x00, 0x00, 0x00, 0x00, 0x04, 0x00, 0x00,
  0xc0, 0xa8, 0x34, 0xbc, 0xa6, 0xf8, 0x01, 0x3e, 0x91, 0xc4, 0xe5, 0xbe,
  0x9f, 0xe3, 0xfd, 0xbe, 0x56, 0x82, 0x8a, 0x3e, 0xe4, 0xfc, 0x0a, 0x3e,
  0xa2, 0xfa, 0xa8, 0xbe, 0x88, 0x4b, 0x81, 0xbe, 0xac, 0xe1, 0x0a, 0xbe,
  0xb0, 0x7c, 0x71, 0x3d, 0xe0, 0x59, 0xba, 0xbd, 0x04, 0x9f, 0x8e, 0xbe,
  0x3c, 0xe3, 0x06, 0xbf, 0x26, 0x55, 0xf2, 0xbe, 0x14, 0x3a, 0x96, 0xbd,
  0xa0, 0xb2, 0xc4, 0xbc, 0x03, 0x93, 0xcb, 0xbe, 0x12, 0xbc, 0x15, 0x3e,
  0x71, 0xcd, 0x64, 0x3e, 0xf5, 0x10, 0xc9, 0x3e, 0x79, 0xb7, 0x26, 0xbe,
  0x83, 0xf0, 0x5d, 0xbe, 0xd5, 0xba, 0xb0, 0xbe, 0xb0, 0xaf, 0xa1, 0xbc,
  0xe3, 0x60, 0x8a, 0x3e, 0x6c, 0xa1, 0xa0, 0xbe, 0x37, 0x39, 0x4e, 0xbe,
  0xd3, 0x21, 0x84, 0x3e, 0xd7, 0xaa, 0x6e, 0xbe, 0x70, 0xa0, 0x86, 0xbb,
  0x84, 0xc9, 0xa8, 0xbe, 0xfd, 0x00, 0xb5, 0x3e, 0xb4, 0x2c, 0xe7, 0x3d,
  0x8a, 0xf4, 0x3b, 0x3e, 0xc5, 0xb2, 0x21, 0x3e, 0xa5, 0x94, 0x89, 0x3e,
  0x9c, 0x7f, 0x7e, 0xbe, 0xd5, 0x0e, 0xc0, 0xbc, 0x60, 0xea, 0xa3, 0x3c,
  0x15, 0x5a, 0xb3, 0xbe, 0xd0, 0xb4, 0x0c, 0xbe, 0xdf, 0x3d, 0xaf, 0xbe,
  0x33, 0x1a, 0x4e, 0xbe, 0xbf, 0x49, 0x88, 0x3e, 0x6c, 0xa9, 0x9e, 0x3d,
  0x2f, 0xcc, 0xef, 0x3e, 0x52, 0x9b, 0xe3, 0xbe, 0x7f, 0xf0, 0x66, 0xbe,
  0xea, 0x3b, 0xc7, 0xbe, 0x1e, 0x36, 0x76, 0x3e, 0xc9, 0x38, 0x95, 0x3e,
  0xe1, 0xfc, 0xcc, 0xbd, 0x90, 0xf2, 0xe1, 0xbd, 0x35, 0xdb, 0x51, 0xbe,
  0x29, 0xeb, 0x88, 0x3e, 0x46, 0x35, 0x65, 0x3e, 0xe7, 0xbe, 0xbc, 0x3e,
  0x74, 0x77, 0x9a, 0x3e, 0xe7, 0x5b, 0xe2, 0xbe, 0x52, 0x17, 0x06, 0xbf,
  0xc9, 0x64, 0x2d, 0xbe, 0x37, 0xa4, 0x9b, 0xbe, 0xe2, 0x13, 0x6e, 0xbe,
  0x1e, 0xfd, 0x21, 0x3e, 0xbe, 0x63, 0xbd, 0xbe, 0x5a, 0xae, 0x3c, 0x3e,
  0x8a, 0x5f, 0xa0, 0x3b, 0x2e, 0x1e, 0xfe, 0xbc, 0x66, 0x10, 0x26, 0xbd,
  0x2b, 0x6a, 0x0e, 0x3d, 0xd9, 0x1e, 0x5b, 0xbe, 0xf6, 0xdc, 0x01, 0x3e,
  0x60, 0xde, 0xbc, 0xbe, 0xc8, 0x80, 0xd0, 0x3a, 0x39, 0x54, 0x11, 0x3f,
  0xcf, 0x57, 0xa4, 0xbc, 0x64, 0xd0, 0xa6, 0x3c, 0x69, 0x9b, 0x14, 0x3d,
  0xd8, 0xef, 0x05, 0x3e, 0xa0, 0x4c, 0xc2, 0xbc, 0x9f, 0xba, 0x9c, 0x3e,
  0x10, 0x83, 0xc4, 0xbe, 0xf2, 0x0c, 0x79, 0xbf, 0x4c, 0xe5, 0xaf, 0x3e,
  0xc0, 0x10, 0x1c, 0x3c, 0xa0, 0xf2, 0x7d, 0xbf, 0x68, 0x2f, 0x8f, 0xbe,
  0x43, 0xa3, 0x9a, 0x3e, 0xb9, 0xbf, 0xd5, 0x3e, 0xdd, 0x88, 0x06, 0xbf,
  0xc2, 0xde, 0x45, 0x3d, 0x6e, 0x5d, 0x82, 0xbd, 0x3d, 0x62, 0xd6, 0x3e,
  0xb2, 0x4e, 0xc5, 0xbe, 0x38, 0x93, 0x15, 0xbd, 0x26, 0xa3, 0xb5, 0xbe,
  0x0c, 0x61, 0x03, 0xbe, 0xce, 0x2e, 0x3b, 0x3e, 0x40, 0xf8, 0x47, 0xbd,
  0xa7, 0xde, 0x95, 0xbe, 0xbd, 0x53, 0xb9, 0x3e, 0xd8, 0x0f, 0x78, 0x3e,
  0xc5, 0xa9, 0xd5, 0x3e, 0x71, 0xdc, 0x9b, 0xbe, 0xb0, 0x49, 0xe5, 0xbd,
  0xcc, 0x40, 0x52, 0xbe, 0xac, 0x13, 0xb4, 0xbe, 0x6e, 0xb5, 0xc7, 0x3e,
  0x21, 0x47, 0xbe, 0xbd, 0xd3, 0xe5, 0xa9, 0xbd, 0x5e, 0xf4, 0x45, 0x3e,
  0x6a, 0xb2, 0x3f, 0x3e, 0xc0, 0x73, 0xa8, 0xbc, 0xf0, 0x8a, 0x83, 0x3c,
  0xfa, 0x08, 0x6f, 0xbe, 0xeb, 0xad, 0x9d, 0x3e, 0x05, 0x2f, 0xcc, 0xbe,
  0xf9, 0xcb, 0xc4, 0xbe, 0x26, 0xfd, 0x46, 0x3e, 0xa6, 0x18, 0x2a, 0xbe,
  0x06, 0xaa, 0x62, 0x3e, 0x00, 0xed, 0x23, 0x3c, 0x93, 0xa2, 0xd0, 0xbe,
  0x4a, 0xd3, 0x6d, 0x3e, 0x8f, 0xcc, 0xa1, 0xbe, 0xc5, 0xf1, 0x4f, 0xbe,
  0x13, 0xf9, 0xc7, 0xbe, 0xd0, 0x3a, 0x88, 0x3c, 0x65, 0x1f, 0xba, 0x3e,
  0x22, 0x3a, 0xc8, 0xbe, 0x41, 0xd2, 0xe3, 0xbe, 0x3e, 0x0a, 0x7d, 0x3e,
  0x71, 0x1f, 0x12, 0xbe, 0x88, 0x53, 0xab, 0xbe, 0x2f, 0xf3, 0x9f, 0x3e,
  0x98, 0xcd, 0x40, 0x3d, 0xb8, 0xe0, 0x66, 0x3d, 0x77, 0x10, 0xc8, 0x3e,
  0xf5, 0x8a, 0xaa, 0xbe, 0x72, 0x1d, 0x30, 0x3e, 0xd3, 0x64, 0xd7, 0x3d,
  0x25, 0xe8, 0xc8, 0x3d, 0xf0, 0xbb, 0x91, 0x3e, 0xbc, 0xca, 0xa3, 0x3d,
  0xc2, 0x4d, 0x22, 0xbe, 0x99, 0x4b, 0xb2, 0xbe, 0x5c, 0xfc, 0xb0, 0xbe,
  0x4a, 0x9f, 0x30, 0x3e, 0x0c, 0xdf, 0x8c, 0xbd, 0xdb, 0xd2, 0x2a, 0xbf,
  0x7e, 0xd1, 0x8b, 0xbe, 0x74, 0x59, 0xde, 0x3d, 0x80, 0x66, 0x4f, 0xbd,
  0x05, 0x10, 0x77, 0xbe, 0x06, 0xb6, 0x70, 0xbc, 0x01, 0xdd, 0x6b, 0x3d,
  0xa8, 0xef, 0xae, 0xbe, 0x97, 0x3d, 0x9c, 0xbd, 0xf6, 0x36, 0x7e, 0xbe,
  0x04, 0xd5, 0x13, 0xbe, 0x64, 0x5f, 0xff, 0x3d, 0xde, 0x92, 0x17, 0x3e,
  0x09, 0xfb, 0xa5, 0x3c, 0xc0, 0xe8, 0xd0, 0xbd, 0x48, 0x35, 0x15, 0x3e,
  0xf7, 0xc7, 0x9a, 0xbd, 0x1c, 0x08, 0xdb, 0xbd, 0xb3, 0x18, 0x9c, 0x3e,
  0xb4, 0xa5, 0x5b, 0xbe, 0xc8, 0xc3, 0xf8, 0x3d, 0xcb, 0x88, 0xe3, 0xbd,
  0x90, 0x14, 0x90, 0xbe, 0x5a, 0xa9, 0x53, 0x3e, 0x21, 0x99, 0x0f, 0xbf,
  0x54, 0xa3, 0x39, 0x3e, 0x37, 0xb6, 0xd2, 0x3e, 0x1c, 0x25, 0xfa, 0xbd,
  0x1e, 0x2a, 0x46, 0xbe, 0x47, 0xeb, 0x8f, 0xbe, 0x9c, 0x75, 0xcc, 0x3d,
  0xc0, 0xce, 0xf4, 0xbb, 0x97, 0xe7, 0xb2, 0x3e, 0xc1, 0xd0, 0xca, 0x3e,
  0xba, 0x0a, 0x04, 0x3e, 0x60, 0x36, 0x60, 0x3c, 0xa6, 0x5a, 0xb3, 0xbe,
  0x12, 0x46, 0x9a, 0xbe, 0x2a, 0xaf, 0xb5, 0xbe, 0xb6, 0xcf, 0xca, 0xbe,
  0x76, 0x7e, 0xb9, 0xbe, 0x0e, 0xc6, 0x97, 0xbe, 0x2c, 0x8c, 0x84, 0xbe,
  0xe6, 0xf1, 0x43, 0x3e, 0xa5, 0x13, 0x83, 0x3e, 0xb1, 0xbb, 0xab, 0xbc,
  0x50, 0x1f, 0x9c, 0x3e, 0xf0, 0x7c, 0x9b, 0xbc, 0x0e, 0x5b, 0x26, 0xbe,
  0x00, 0x44, 0xf2, 0x3c, 0x80, 0x66, 0x55, 0xbb, 0x97, 0x94, 0xdc, 0xbe,
  0xd4, 0x2b, 0xe5, 0xbe, 0x65, 0x48, 0x19, 0xbd, 0xb7, 0x56, 0xff, 0xbe,
  0x66, 0x08, 0x1b, 0x3e, 0xba, 0x57, 0xd8, 0xbe, 0x88, 0xad, 0x39, 0x3d,
  0x3d, 0x90, 0xda, 0x3e, 0xba, 0x7e, 0x34, 0xbe, 0x4b, 0x37, 0xb6, 0x3e,
  0xb2, 0xf6, 0x0f, 0xbe, 0x30, 0xd1, 0x50, 0xbc, 0x0b, 0xb0, 0x48, 0x3e,
  0x20, 0x3a, 0x95, 0x3d, 0x5f, 0x0b, 0xac, 0x3e, 0xca, 0x4e, 0x0c, 0x3e,
  0x54, 0x4a, 0xcf, 0xbe, 0x36, 0xc8, 0xa7, 0x3d, 0x1c, 0x5c, 0xda, 0xbe,
  0x2e, 0xd5, 0x97, 0x3e, 0xdf, 0x33, 0x9a, 0x3d, 0xcc, 0x0a, 0x65, 0x3e,
  0x42, 0xe2, 0xcd, 0x3e, 0x77, 0x98, 0xd3, 0x3e, 0x90, 0x5c, 0xa1, 0x3c,
  0x4a, 0x1e, 0x26, 0x3e, 0x03, 0xc3, 0xca, 0xbe, 0xaf, 0xf6, 0x02, 0x3e,
  0x99, 0x32, 0x8b, 0x3d, 0x86, 0xe1, 0xb6, 0xbe, 0x11, 0xa8, 0x43, 0xbe,
  0x88, 0x54, 0x26, 0xbd, 0x90, 0x8f, 0xbd, 0xbd, 0x4e, 0x9a, 0xb4, 0xbe,
  0xb2, 0x7a, 0x21, 0xbe, 0x76, 0xfc, 0xa3, 0x3e, 0x1b, 0x03, 0xa7, 0x3e,
  0xff, 0x77, 0xbe, 0x3e, 0xd2, 0x25, 0x1e, 0x3e, 0x10, 0x73, 0xd0, 0xbe,
  0xc8, 0x40, 0x63, 0xbd, 0xab, 0x82, 0x88, 0x3e, 0xa4, 0x7b, 0xa0, 0x3f,
  0xb7, 0x7d, 0x0c, 0x40, 0x41, 0x64, 0xf7, 0xbe, 0xe2, 0x39, 0x81, 0x3e,
  0xe7, 0xc3, 0x7c, 0xbe, 0x78, 0xce, 0x4c, 0xbd, 0x44, 0x75, 0x86, 0xbd,
  0x3d, 0xb3, 0x80, 0xbb, 0x36, 0x1e, 0x80, 0xbe, 0xd2, 0x9e, 0xcf, 0x3f,
  0x7f, 0x9e, 0xc0, 0x3e, 0xc6, 0xbd, 0x72, 0xbf, 0x2c, 0x52, 0x1f, 0xbd,
  0x4f, 0x32, 0x9d, 0x3e, 0x00, 0x00, 0x00, 0x00, 0x86, 0xfd, 0xff, 0xff,
  0x04, 0x00, 0x00, 0x00, 0x00, 0x02, 0x00, 0x00, 0x3c, 0x8c, 0xd1, 0xbe,
  0x8c, 0x4a, 0xac, 0xbe, 0xa8, 0xe9, 0x4c, 0xbe, 0x20, 0x40, 0xdc, 0x3e,
  0x3c, 0xc3, 0xf5, 0xbe, 0xd8, 0x49, 0xb4, 0xbe, 0x58, 0xab, 0xa1, 0x3e,
  0x68, 0x4e, 0x18, 0xbe, 0x00, 0xfe, 0x78, 0xbd, 0x10, 0x0f, 0xcc, 0x3d,
  0x7c, 0xf6, 0x9f, 0x3e, 0xac, 0x63, 0x98, 0x3e, 0x24, 0x0a, 0x9d, 0xbe,
  0xf0, 0xe9, 0x96, 0x3e, 0xf4, 0xb0, 0xb2, 0xbe, 0xe0, 0x50, 0xdb, 0x3d,
  0xcd, 0xf0, 0x43, 0x3e, 0xd2, 0xa0, 0x90, 0x3f, 0x3c, 0x71, 0x8c, 0x3d,
  0xa8, 0xb7, 0x18, 0xc0, 0xe2, 0x1a, 0xe3, 0xbc, 0xf0, 0xd8, 0x69, 0xbe,
  0x3b, 0xc4, 0x60, 0xc0, 0xce, 0x09, 0x64, 0xbf, 0x15, 0xc8, 0xff, 0x3d,
  0x5e, 0x3b, 0x62, 0xbf, 0x44, 0x4e, 0xc0, 0xbe, 0x3b, 0x5b, 0x7f, 0x3f,
  0x70, 0xea, 0xea, 0xbc, 0xa0, 0x82, 0x0d, 0x3e, 0x38, 0xd0, 0x1e, 0xc0,
  0x76, 0x1a, 0x18, 0xc0, 0xce, 0x52, 0x16, 0x3e, 0xd1, 0xf3, 0x0a, 0x40,
  0x62, 0x28, 0x8e, 0xbe, 0x80, 0x6c, 0x7f, 0xc1, 0x11, 0x81, 0x9d, 0xbe,
  0xb0, 0xd4, 0x21, 0x3e, 0x92, 0x3e, 0x1d, 0xc0, 0x94, 0xd5, 0xa6, 0xbe,
  0xd7, 0xf9, 0xf6, 0xbd, 0xf6, 0x5f, 0xa4, 0xbf, 0x5e, 0x43, 0x6d, 0xbe,
  0x72, 0xa9, 0x3d, 0xc0, 0x13, 0x64, 0x0b, 0xbe, 0x98, 0x54, 0xa3, 0x3e,
  0xab, 0xb2, 0x49, 0x40, 0x9b, 0xf4, 0xff, 0x3e, 0x20, 0x5d, 0xb0, 0xbe,
  0xe8, 0x3a, 0xae, 0xbe, 0x88, 0xb5, 0x10, 0x3e, 0x20, 0x5c, 0xe3, 0xbe,
  0xb4, 0x51, 0xc3, 0x3e, 0x68, 0x8b, 0xb5, 0x3e, 0x10, 0xf4, 0xf7, 0x3d,
  0x48, 0x5f, 0x44, 0xbe, 0x24, 0x1b, 0xd3, 0xbe, 0x20, 0x55, 0xb3, 0xbd,
  0x48, 0xc6, 0x6a, 0x3e, 0x50, 0x1e, 0x9a, 0xbe, 0x70, 0x25, 0x2e, 0xbe,
  0xc8, 0x7c, 0x39, 0xbe, 0x80, 0xd3, 0x2a, 0xbd, 0x40, 0x46, 0x34, 0x3e,
  0xec, 0xe5, 0xcc, 0xbe, 0xc4, 0x4b, 0xe8, 0xbe, 0xd8, 0x44, 0x90, 0x3e,
  0xfc, 0x33, 0x80, 0xbe, 0xc8, 0xc9, 0x55, 0xbe, 0x18, 0xca, 0xc3, 0x3e,
  0xc0, 0x50, 0x4e, 0xbd, 0xc0, 0xbf, 0x95, 0x3e, 0xca, 0x50, 0x9f, 0xbd,
  0x88, 0xce, 0xdc, 0x3e, 0x47, 0xd1, 0x1d, 0xbf, 0xa5, 0x7a, 0x27, 0xbe,
  0xaa, 0xe5, 0x63, 0xbe, 0x74, 0xa2, 0xf7, 0x3e, 0xd0, 0xa3, 0xc8, 0x3f,
  0x59, 0x08, 0x0b, 0xbf, 0x91, 0x93, 0x9a, 0x3c, 0x13, 0x76, 0x11, 0x3f,
  0x89, 0x35, 0x37, 0xbb, 0xe6, 0xdb, 0x8f, 0xbe, 0x0c, 0x92, 0xc2, 0xba,
  0xa8, 0xb3, 0x89, 0xbe, 0x7a, 0xff, 0x71, 0x40, 0x05, 0xa0, 0xbf, 0xbd,
  0xd5, 0xc0, 0xf5, 0x3d, 0x08, 0xa5, 0x08, 0xbf, 0xb0, 0xbc, 0xa5, 0xbe,
  0x55, 0x17, 0xe6, 0xbe, 0x50, 0x33, 0x88, 0xbd, 0xb0, 0xf2, 0x6a, 0xbe,
  0xa9, 0x73, 0x3a, 0xc0, 0xc2, 0xd6, 0xe9, 0xbe, 0x53, 0xc9, 0x8b, 0xbd,
  0x1a, 0xe7, 0x4b, 0x3f, 0xb8, 0xe3, 0x13, 0xbe, 0x00, 0xe3, 0x94, 0xbe,
  0xf6, 0x09, 0x1a, 0x3e, 0xd0, 0xfd, 0x99, 0x3e, 0x0d, 0xff, 0x9c, 0x3f,
  0x84, 0x66, 0x54, 0xbe, 0xa9, 0xf4, 0x00, 0xbe, 0x3a, 0x06, 0x81, 0xc0,
  0x74, 0xab, 0x2f, 0x3e, 0x9d, 0x7c, 0x56, 0xc0, 0x82, 0x79, 0xc7, 0x3c,
  0xa0, 0x3a, 0x5f, 0x3e, 0xcb, 0x6d, 0x4c, 0x40, 0x69, 0xd6, 0x10, 0x3e,
  0x5c, 0x3b, 0xb1, 0x3c, 0x25, 0xb4, 0x71, 0xbe, 0x69, 0xfa, 0x4a, 0xbf,
  0x83, 0xe4, 0x0f, 0xbf, 0x05, 0x36, 0x36, 0xbe, 0xa0, 0xd4, 0x7d, 0xbe,
  0xfb, 0x6a, 0x9c, 0xbe, 0x2f, 0x59, 0x2f, 0xbf, 0x9c, 0x25, 0x8c, 0xbe,
  0x00, 0xc2, 0x80, 0xbd, 0x6c, 0x6b, 0xf4, 0x3e, 0xd8, 0xb0, 0x3e, 0x3e,
  0xac, 0xea, 0xd0, 0x3e, 0x80, 0xbc, 0x9d, 0xbc, 0xf4, 0x38, 0x80, 0xbe,
  0x50, 0xac, 0x12, 0x3e, 0x00, 0x00, 0x00, 0x00, 0x96, 0xff, 0xff, 0xff,
  0x04, 0x00, 0x00, 0x00, 0x04, 0x00, 0x00, 0x00, 0x7f, 0x27, 0xb1, 0x3f,
  0xa6, 0xff, 0xff, 0xff, 0x04, 0x00, 0x00, 0x00, 0x40, 0x00, 0x00, 0x00,
  0xd9, 0x86, 0x39, 0xbe, 0x35, 0x19, 0xbe, 0xbb, 0xc9, 0x55, 0x3d, 0xbd,
  0x66, 0x0c, 0xef, 0xbd, 0x73, 0xa1, 0xc9, 0x3e, 0xf9, 0xb2, 0xc9, 0x3e,
  0xf2, 0x42, 0x84, 0xbb, 0x00, 0x00, 0x00, 0x00, 0x60, 0x1b, 0xbc, 0xbc,
  0x08, 0x4a, 0x7d, 0xbe, 0x62, 0x7e, 0xbf, 0xbd, 0x00, 0x00, 0x00, 0x00,
  0xce, 0xd2, 0xd8, 0xbd, 0xf5, 0x11, 0x96, 0xbd, 0x4d, 0x2c, 0xc8, 0xbc,
  0x21, 0xb9, 0x99, 0x3e, 0x00, 0x00, 0x00, 0x00, 0x00, 0x00, 0x00, 0x00,
  0x00, 0x00, 0x00, 0x00, 0x00, 0x00, 0x06, 0x00, 0x08, 0x00, 0x04, 0x00,
  0x06, 0x00, 0x00, 0x00, 0x04, 0x00, 0x00, 0x00, 0x40, 0x00, 0x00, 0x00,
  0x00, 0x00, 0x00, 0x00, 0x00, 0x00, 0x00, 0x00, 0x44, 0x57, 0x97, 0xbe,
  0xeb, 0xc3, 0xa2, 0xbe, 0x47, 0xb4, 0x81, 0xbd, 0xda, 0xa6, 0xcc, 0xbe,
  0x00, 0x00, 0x00, 0x00, 0x00, 0x00, 0x00, 0x00, 0x00, 0x00, 0x00, 0x00,
  0x42, 0x0f, 0xfd, 0xbe, 0xd5, 0x95, 0x87, 0xbe, 0x76, 0x2c, 0xaf, 0xbe,
  0x9d, 0x83, 0xa6, 0xbe, 0x99, 0xfa, 0xdf, 0xbe, 0x67, 0x94, 0x98, 0xbe,
  0x00, 0x00, 0x00, 0x00, 0x00, 0x00, 0x00, 0x00, 0x00, 0x00, 0x00, 0x00,
  0x00, 0x00, 0x00, 0x00, 0x9c, 0xfb, 0xff, 0xff, 0x00, 0x00, 0x00, 0x00,
  0x00, 0x00, 0x00, 0x00, 0x00, 0x00, 0x00, 0x00, 0xac, 0xfb, 0xff, 0xff,
  0x0f, 0x00, 0x00, 0x00, 0x4d, 0x4c, 0x49, 0x52, 0x20, 0x43, 0x6f, 0x6e,
  0x76, 0x65, 0x72, 0x74, 0x65, 0x64, 0x2e, 0x00, 0x01, 0x00, 0x00, 0x00,
  0x14, 0x00, 0x00, 0x00, 0x00, 0x00, 0x0e, 0x00, 0x18, 0x00, 0x04, 0x00,
  0x08, 0x00, 0x0c, 0x00, 0x10, 0x00, 0x14, 0x00, 0x0e, 0x00, 0x00, 0x00,
  0x00, 0x01, 0x00, 0x00, 0xf4, 0x00, 0x00, 0x00, 0xe8, 0x00, 0x00, 0x00,
  0x14, 0x00, 0x00, 0x00, 0x04, 0x00, 0x00, 0x00, 0x04, 0x00, 0x00, 0x00,
  0x6d, 0x61, 0x69, 0x6e, 0x00, 0x00, 0x00, 0x00, 0x03, 0x00, 0x00, 0x00,
  0x90, 0x00, 0x00, 0x00, 0x48, 0x00, 0x00, 0x00, 0x04, 0x00, 0x00, 0x00,
  0xce, 0xff, 0xff, 0xff, 0x00, 0x00, 0x00, 0x08, 0x18, 0x00, 0x00, 0x00,
  0x0c, 0x00, 0x00, 0x00, 0x04, 0x00, 0x00, 0x00, 0x24, 0xfc, 0xff, 0xff,
  0x01, 0x00, 0x00, 0x00, 0x09, 0x00, 0x00, 0x00, 0x03, 0x00, 0x00, 0x00,
  0x08, 0x00, 0x00, 0x00, 0x06, 0x00, 0x00, 0x00, 0x03, 0x00, 0x00, 0x00,
  0x00, 0x00, 0x0e, 0x00, 0x14, 0x00, 0x00, 0x00, 0x08, 0x00, 0x0c, 0x00,
  0x07, 0x00, 0x10, 0x00, 0x0e, 0x00, 0x00, 0x00, 0x00, 0x00, 0x00, 0x08,
  0x1c, 0x00, 0x00, 0x00, 0x10, 0x00, 0x00, 0x00, 0x04, 0x00, 0x00, 0x00,
  0xba, 0xff, 0xff, 0xff, 0x00, 0x00, 0x00, 0x01, 0x01, 0x00, 0x00, 0x00,
  0x08, 0x00, 0x00, 0x00, 0x03, 0x00, 0x00, 0x00, 0x07, 0x00, 0x00, 0x00,
  0x05, 0x00, 0x00, 0x00, 0x02, 0x00, 0x00, 0x00, 0x00, 0x00, 0x0e, 0x00,
  0x16, 0x00, 0x00, 0x00, 0x08, 0x00, 0x0c, 0x00, 0x07, 0x00, 0x10, 0x00,
  0x0e, 0x00, 0x00, 0x00, 0x00, 0x00, 0x00, 0x08, 0x24, 0x00, 0x00, 0x00,
  0x18, 0x00, 0x00, 0x00, 0x0c, 0x00, 0x00, 0x00, 0x00, 0x00, 0x06, 0x00,
  0x08, 0x00, 0x07, 0x00, 0x06, 0x00, 0x00, 0x00, 0x00, 0x00, 0x00, 0x01,
  0x01, 0x00, 0x00, 0x00, 0x07, 0x00, 0x00, 0x00, 0x03, 0x00, 0x00, 0x00,
  0x00, 0x00, 0x00, 0x00, 0x04, 0x00, 0x00, 0x00, 0x01, 0x00, 0x00, 0x00,
  0x01, 0x00, 0x00, 0x00, 0x09, 0x00, 0x00, 0x00, 0x01, 0x00, 0x00, 0x00,
  0x00, 0x00, 0x00, 0x00, 0x0a, 0x00, 0x00, 0x00, 0x08, 0x03, 0x00, 0x00,
  0xa0, 0x02, 0x00, 0x00, 0x48, 0x02, 0x00, 0x00, 0xf0, 0x01, 0x00, 0x00,
  0xa4, 0x01, 0x00, 0x00, 0x58, 0x01, 0x00, 0x00, 0x0c, 0x01, 0x00, 0x00,
  0xa4, 0x00, 0x00, 0x00, 0x3c, 0x00, 0x00, 0x00, 0x04, 0x00, 0x00, 0x00,
  0x2e, 0xfd, 0xff, 0xff, 0x24, 0x00, 0x00, 0x00, 0x0a, 0x00, 0x00, 0x00,
  0x0c, 0x00, 0x00, 0x00, 0x04, 0x00, 0x00, 0x00, 0x20, 0xfd, 0xff, 0xff,
  0x08, 0x00, 0x00, 0x00, 0x49, 0x64, 0x65, 0x6e, 0x74, 0x69, 0x74, 0x79,
  0x00, 0x00, 0x00, 0x00, 0x02, 0x00, 0x00, 0x00, 0x01, 0x00, 0x00, 0x00,
  0x01, 0x00, 0x00, 0x00, 0x62, 0xfd, 0xff, 0xff, 0x54, 0x00, 0x00, 0x00,
  0x09, 0x00, 0x00, 0x00, 0x0c, 0x00, 0x00, 0x00, 0x04, 0x00, 0x00, 0x00,
  0x54, 0xfd, 0xff, 0xff, 0x38, 0x00, 0x00, 0x00, 0x73, 0x65, 0x71, 0x75,
  0x65, 0x6e, 0x74, 0x69, 0x61, 0x6c, 0x5f, 0x36, 0x2f, 0x64, 0x65, 0x6e,
  0x73, 0x65, 0x5f, 0x31, 0x39, 0x2f, 0x52, 0x65, 0x6c, 0x75, 0x3b, 0x73,
  0x65, 0x71, 0x75, 0x65, 0x6e, 0x74, 0x69, 0x61, 0x6c, 0x5f, 0x36, 0x2f,
  0x64, 0x65, 0x6e, 0x73, 0x65, 0x5f, 0x31, 0x39, 0x2f, 0x42, 0x69, 0x61,
  0x73, 0x41, 0x64, 0x64, 0x00, 0x00, 0x00, 0x00, 0x02, 0x00, 0x00, 0x00,
  0x01, 0x00, 0x00, 0x00, 0x10, 0x00, 0x00, 0x00, 0xc6, 0xfd, 0xff, 0xff,
  0x54, 0x00, 0x00, 0x00, 0x08, 0x00, 0x00, 0x00, 0x0c, 0x00, 0x00, 0x00,
  0x04, 0x00, 0x00, 0x00, 0xb8, 0xfd, 0xff, 0xff, 0x38, 0x00, 0x00, 0x00,
  0x73, 0x65, 0x71, 0x75, 0x65, 0x6e, 0x74, 0x69, 0x61, 0x6c, 0x5f, 0x36,
  0x2f, 0x64, 0x65, 0x6e, 0x73, 0x65, 0x5f, 0x31, 0x38, 0x2f, 0x52, 0x65,
  0x6c, 0x75, 0x3b, 0x73, 0x65, 0x71, 0x75, 0x65, 0x6e, 0x74, 0x69, 0x61,
  0x6c, 0x5f, 0x36, 0x2f, 0x64, 0x65, 0x6e, 0x73, 0x65, 0x5f, 0x31, 0x38,
  0x2f, 0x42, 0x69, 0x61, 0x73, 0x41, 0x64, 0x64, 0x00, 0x00, 0x00, 0x00,
  0x02, 0x00, 0x00, 0x00, 0x01, 0x00, 0x00, 0x00, 0x10, 0x00, 0x00, 0x00,
  0x2a, 0xfe, 0xff, 0xff, 0x38, 0x00, 0x00, 0x00, 0x07, 0x00, 0x00, 0x00,
  0x0c, 0x00, 0x00, 0x00, 0x04, 0x00, 0x00, 0x00, 0x1c, 0xfe, 0xff, 0xff,
  0x1c, 0x00, 0x00, 0x00, 0x73, 0x65, 0x71, 0x75, 0x65, 0x6e, 0x74, 0x69,
  0x61, 0x6c, 0x5f, 0x36, 0x2f, 0x64, 0x65, 0x6e, 0x73, 0x65, 0x5f, 0x32,
  0x30, 0x2f, 0x4d, 0x61, 0x74, 0x4d, 0x75, 0x6c, 0x00, 0x00, 0x00, 0x00,
  0x02, 0x00, 0x00, 0x00, 0x01, 0x00, 0x00, 0x00, 0x10, 0x00, 0x00, 0x00,
  0x72, 0xfe, 0xff, 0xff, 0x38, 0x00, 0x00, 0x00, 0x06, 0x00, 0x00, 0x00,
  0x0c, 0x00, 0x00, 0x00, 0x04, 0x00, 0x00, 0x00, 0x64, 0xfe, 0xff, 0xff,
  0x1c, 0x00, 0x00, 0x00, 0x73, 0x65, 0x71, 0x75, 0x65, 0x6e, 0x74, 0x69,
  0x61, 0x6c, 0x5f, 0x36, 0x2f, 0x64, 0x65, 0x6e, 0x73, 0x65, 0x5f, 0x31,
  0x39, 0x2f, 0x4d, 0x61, 0x74, 0x4d, 0x75, 0x6c, 0x00, 0x00, 0x00, 0x00,
  0x02, 0x00, 0x00, 0x00, 0x10, 0x00, 0x00, 0x00, 0x10, 0x00, 0x00, 0x00,
  0xba, 0xfe, 0xff, 0xff, 0x38, 0x00, 0x00, 0x00, 0x05, 0x00, 0x00, 0x00,
  0x0c, 0x00, 0x00, 0x00, 0x04, 0x00, 0x00, 0x00, 0xac, 0xfe, 0xff, 0xff,
  0x1c, 0x00, 0x00, 0x00, 0x73, 0x65, 0x71, 0x75, 0x65, 0x6e, 0x74, 0x69,
  0x61, 0x6c, 0x5f, 0x36, 0x2f, 0x64, 0x65, 0x6e, 0x73, 0x65, 0x5f, 0x31,
  0x38, 0x2f, 0x4d, 0x61, 0x74, 0x4d, 0x75, 0x6c, 0x00, 0x00, 0x00, 0x00,
  0x02, 0x00, 0x00, 0x00, 0x10, 0x00, 0x00, 0x00, 0x08, 0x00, 0x00, 0x00,
  0x02, 0xff, 0xff, 0xff, 0x48, 0x00, 0x00, 0x00, 0x04, 0x00, 0x00, 0x00,
  0x0c, 0x00, 0x00, 0x00, 0x04, 0x00, 0x00, 0x00, 0xf4, 0xfe, 0xff, 0xff,
  0x2c, 0x00, 0x00, 0x00, 0x73, 0x65, 0x71, 0x75, 0x65, 0x6e, 0x74, 0x69,
  0x61, 0x6c, 0x5f, 0x36, 0x2f, 0x64, 0x65, 0x6e, 0x73, 0x65, 0x5f, 0x32,
  0x30, 0x2f, 0x42, 0x69, 0x61, 0x73, 0x41, 0x64, 0x64, 0x2f, 0x52, 0x65,
  0x61, 0x64, 0x56, 0x61, 0x72, 0x69, 0x61, 0x62, 0x6c, 0x65, 0x4f, 0x70,
  0x00, 0x00, 0x00, 0x00, 0x01, 0x00, 0x00, 0x00, 0x01, 0x00, 0x00, 0x00,
  0x56, 0xff, 0xff, 0xff, 0x48, 0x00, 0x00, 0x00, 0x03, 0x00, 0x00, 0x00,
  0x0c, 0x00, 0x00, 0x00, 0x04, 0x00, 0x00, 0x00, 0x48, 0xff, 0xff, 0xff,
  0x2c, 0x00, 0x00, 0x00, 0x73, 0x65, 0x71, 0x75, 0x65, 0x6e, 0x74, 0x69,
  0x61, 0x6c, 0x5f, 0x36, 0x2f, 0x64, 0x65, 0x6e, 0x73, 0x65, 0x5f, 0x31,
  0x39, 0x2f, 0x42, 0x69, 0x61, 0x73, 0x41, 0x64, 0x64, 0x2f, 0x52, 0x65,
  0x61, 0x64, 0x56, 0x61, 0x72, 0x69, 0x61, 0x62, 0x6c, 0x65, 0x4f, 0x70,
  0x00, 0x00, 0x00, 0x00, 0x01, 0x00, 0x00, 0x00, 0x10, 0x00, 0x00, 0x00,
  0xaa, 0xff, 0xff, 0xff, 0x48, 0x00, 0x00, 0x00, 0x02, 0x00, 0x00, 0x00,
  0x0c, 0x00, 0x00, 0x00, 0x04, 0x00, 0x00, 0x00, 0x9c, 0xff, 0xff, 0xff,
  0x2c, 0x00, 0x00, 0x00, 0x73, 0x65, 0x71, 0x75, 0x65, 0x6e, 0x74, 0x69,
  0x61, 0x6c, 0x5f, 0x36, 0x2f, 0x64, 0x65, 0x6e, 0x73, 0x65, 0x5f, 0x31,
  0x38, 0x2f, 0x42, 0x69, 0x61, 0x73, 0x41, 0x64, 0x64, 0x2f, 0x52, 0x65,
  0x61, 0x64, 0x56, 0x61, 0x72, 0x69, 0x61, 0x62, 0x6c, 0x65, 0x4f, 0x70,
  0x00, 0x00, 0x00, 0x00, 0x01, 0x00, 0x00, 0x00, 0x10, 0x00, 0x00, 0x00,
  0x00, 0x00, 0x0e, 0x00, 0x14, 0x00, 0x04, 0x00, 0x00, 0x00, 0x08, 0x00,
  0x0c, 0x00, 0x10, 0x00, 0x0e, 0x00, 0x00, 0x00, 0x24, 0x00, 0x00, 0x00,
  0x01, 0x00, 0x00, 0x00, 0x10, 0x00, 0x00, 0x00, 0x08, 0x00, 0x00, 0x00,
  0x04, 0x00, 0x04, 0x00, 0x04, 0x00, 0x00, 0x00, 0x07, 0x00, 0x00, 0x00,
  0x69, 0x6e, 0x70, 0x75, 0x74, 0x5f, 0x31, 0x00, 0x02, 0x00, 0x00, 0x00,
  0x01, 0x00, 0x00, 0x00, 0x08, 0x00, 0x00, 0x00, 0x01, 0x00, 0x00, 0x00,
  0x10, 0x00, 0x00, 0x00, 0x00, 0x00, 0x0a, 0x00, 0x0c, 0x00, 0x07, 0x00,
  0x00, 0x00, 0x08, 0x00, 0x0a, 0x00, 0x00, 0x00, 0x00, 0x00, 0x00, 0x09,
  0x03, 0x00, 0x00, 0x00
};
unsigned int temperature_predictor_tflite_len = 3280;
