unsigned char humidity_predictor_tflite[] = {
  0x28, 0x00, 0x00, 0x00, 0x54, 0x46, 0x4c, 0x33, 0x00, 0x00, 0x00, 0x00,
  0x00, 0x00, 0x00, 0x00, 0x00, 0x00, 0x00, 0x00, 0x00, 0x00, 0x12, 0x00,
  0x1c, 0x00, 0x04, 0x00, 0x08, 0x00, 0x0c, 0x00, 0x10, 0x00, 0x14, 0x00,
  0x00, 0x00, 0x18, 0x00, 0x12, 0x00, 0x00, 0x00, 0x03, 0x00, 0x00, 0x00,
  0xa0, 0x1c, 0x00, 0x00, 0x64, 0x15, 0x00, 0x00, 0x4c, 0x15, 0x00, 0x00,
  0x3c, 0x00, 0x00, 0x00, 0x04, 0x00, 0x00, 0x00, 0x01, 0x00, 0x00, 0x00,
  0x0c, 0x00, 0x00, 0x00, 0x08, 0x00, 0x0c, 0x00, 0x04, 0x00, 0x08, 0x00,
  0x08, 0x00, 0x00, 0x00, 0x08, 0x00, 0x00, 0x00, 0x11, 0x00, 0x00, 0x00,
  0x13, 0x00, 0x00, 0x00, 0x6d, 0x69, 0x6e, 0x5f, 0x72, 0x75, 0x6e, 0x74,
  0x69, 0x6d, 0x65, 0x5f, 0x76, 0x65, 0x72, 0x73, 0x69, 0x6f, 0x6e, 0x00,
  0x12, 0x00, 0x00, 0x00, 0x00, 0x15, 0x00, 0x00, 0xec, 0x14, 0x00, 0x00,
  0x90, 0x14, 0x00, 0x00, 0xec, 0x13, 0x00, 0x00, 0x58, 0x13, 0x00, 0x00,
  0x24, 0x13, 0x00, 0x00, 0x10, 0x13, 0x00, 0x00, 0xfc, 0x10, 0x00, 0x00,
  0xe8, 0x08, 0x00, 0x00, 0xd4, 0x04, 0x00, 0x00, 0xc0, 0x00, 0x00, 0x00,
  0x8c, 0x00, 0x00, 0x00, 0x80, 0x00, 0x00, 0x00, 0x6c, 0x00, 0x00, 0x00,
  0x58, 0x00, 0x00, 0x00, 0x44, 0x00, 0x00, 0x00, 0x30, 0x00, 0x00, 0x00,
  0x04, 0x00, 0x00, 0x00, 0xb6, 0xeb, 0xff, 0xff, 0x04, 0x00, 0x00, 0x00,
  0x10, 0x00, 0x00, 0x00, 0x31, 0x2e, 0x35, 0x2e, 0x30, 0x00, 0x00, 0x00,
  0x00, 0x00, 0x00, 0x00, 0x00, 0x00, 0x00, 0x00, 0x00, 0x00, 0x00, 0x00,
  0x00, 0x00, 0x00, 0x00, 0x00, 0x00, 0x00, 0x00, 0x44, 0xe4, 0xff, 0xff,
  0x00, 0x00, 0x00, 0x00, 0x00, 0x00, 0x00, 0x00, 0x00, 0x00, 0x00, 0x00,
  0x54, 0xe4, 0xff, 0xff, 0x00, 0x00, 0x00, 0x00, 0x00, 0x00, 0x00, 0x00,
  0x00, 0x00, 0x00, 0x00, 0x64, 0xe4, 0xff, 0xff, 0x00, 0x00, 0x00, 0x00,
  0x00, 0x00, 0x00, 0x00, 0x00, 0x00, 0x00, 0x00, 0x74, 0xe4, 0xff, 0xff,
  0x00, 0x00, 0x00, 0x00, 0x00, 0x00, 0x00, 0x00, 0x00, 0x00, 0x00, 0x00,
  0x84, 0xe4, 0xff, 0xff, 0x00, 0x00, 0x00, 0x00, 0x26, 0xec, 0xff, 0xff,
  0x04, 0x00, 0x00, 0x00, 0x20, 0x00, 0x00, 0x00, 0xc2, 0x04, 0xb6, 0x3e,
  0xac, 0xa3, 0x3a, 0xbe, 0x05, 0x77, 0xa5, 0xbd, 0xe6, 0xab, 0x49, 0xbf,
  0xdc, 0x1c, 0xc4, 0xbe, 0x0d, 0xc3, 0x2e, 0x3f, 0x1d, 0x72, 0x10, 0x3f,
  0x03, 0x31, 0xef, 0xbe, 0x00, 0x00, 0x00, 0x00, 0x56, 0xec, 0xff, 0xff,
  0x04, 0x00, 0x00, 0x00, 0x00, 0x04, 0x00, 0x00, 0xdc, 0xd3, 0x97, 0xbe,
  0xc8, 0xdf, 0x40, 0xbd, 0x5f, 0x21, 0x8a, 0xbd, 0x45, 0x39, 0x97, 0x3e,
  0xf0, 0xfa, 0x2d, 0x3e, 0xd9, 0x44, 0x3e, 0x3e, 0x7d, 0xbe, 0xce, 0xbd,
  0xae, 0xc7, 0x94, 0xbe, 0x0d, 0x71, 0x18, 0x3e, 0x44, 0x94, 0xa9, 0x3c,
  0x09, 0xf0, 0x21, 0x3e, 0x44, 0xba, 0x9f, 0xbb, 0x64, 0x82, 0x01, 0xbe,
  0x9c, 0xeb, 0xeb, 0x3d, 0xca, 0x8a, 0x04, 0x3e, 0x75, 0x6e, 0x37, 0x3e,
  0x99, 0xae, 0x55, 0xbe, 0x37, 0x6f, 0x2a, 0xbe, 0x93, 0x78, 0x0a, 0x3e,
  0x3f, 0xb7, 0x56, 0xbe, 0x96, 0x71, 0xb0, 0x3d, 0x80, 0xde, 0x83, 0x3e,
  0xdd, 0xf8, 0x87, 0xbe, 0xb2, 0x05, 0xc3, 0x3e, 0xee, 0x90, 0x9a, 0x3e,
  0x82, 0x84, 0xb1, 0xbd, 0xff, 0x42, 0xb2, 0xbd, 0xc3, 0x5e, 0xc8, 0x3d,
  0x92, 0xa0, 0xfe, 0xbf, 0x58, 0xd3, 0xd0, 0x3d, 0x0b, 0x7f, 0xdf, 0x3e,
  0x34, 0x8e, 0x48, 0x3e, 0x15, 0xa2, 0xb9, 0x3e, 0x6a, 0xa6, 0x5d, 0xbe,
  0x97, 0x8e, 0xa2, 0xbe, 0xb9, 0x14, 0x09, 0xbe, 0x9c, 0xec, 0x64, 0x3d,
  0x42, 0x81, 0x31, 0x3d, 0x88, 0x50, 0x81, 0x3a, 0xdd, 0x2e, 0xa1, 0xbe,
  0x4b, 0x48, 0xbe, 0x3e, 0x20, 0x62, 0xe7, 0x3d, 0x54, 0xc0, 0xf7, 0xbe,
  0x92, 0x8e, 0x6e, 0x3d, 0x8d, 0xa1, 0xc2, 0xbc, 0xa5, 0x26, 0x8f, 0x3e,
  0xeb, 0x8e, 0x8e, 0xbf, 0xe0, 0xcf, 0x7c, 0x3d, 0x92, 0x17, 0x03, 0xbe,
  0x1a, 0xd3, 0x7d, 0xbe, 0x4e, 0x20, 0xf9, 0x3e, 0x1b, 0x76, 0x80, 0x3e,
  0x21, 0x52, 0x2b, 0xbd, 0x0e, 0xd8, 0x23, 0xbe, 0xb8, 0x2c, 0xa3, 0x3e,
  0x30, 0x92, 0x34, 0x3d, 0x2c, 0xbe, 0x2b, 0xbe, 0x80, 0x05, 0xf1, 0xbf,
  0x36, 0x46, 0xb1, 0xbe, 0x5f, 0x9a, 0xd3, 0xbe, 0xe3, 0xeb, 0xb0, 0x3d,
  0x54, 0xa4, 0xbf, 0x3e, 0x39, 0x8b, 0x84, 0x3e, 0xee, 0xc1, 0x09, 0x3e,
  0x7a, 0x2b, 0x30, 0xbd, 0x19, 0x39, 0xc5, 0xbe, 0xf0, 0x4b, 0x53, 0x3f,
  0x4e, 0x85, 0x76, 0xbd, 0x8f, 0x96, 0x24, 0x3e, 0x5e, 0x90, 0x98, 0xbe,
  0xb0, 0xab, 0x4f, 0xbf, 0x24, 0x74, 0xac, 0x3e, 0x9f, 0x4c, 0x22, 0x3e,
  0x6c, 0x31, 0x37, 0x3e, 0x35, 0x41, 0x0f, 0xbf, 0x5e, 0x1c, 0x48, 0x3d,
  0xd9, 0x9d, 0x92, 0x3d, 0x6b, 0x7f, 0x21, 0x3f, 0x56, 0x85, 0x4a, 0xbd,
  0x6b, 0x8c, 0x74, 0x3e, 0x42, 0x6a, 0x77, 0x3e, 0x08, 0xbc, 0x9f, 0xbe,
  0x30, 0x11, 0xec, 0x3d, 0x16, 0x95, 0x1a, 0xbc, 0x94, 0x44, 0x9e, 0x3d,
  0x52, 0xc2, 0x9e, 0x3d, 0xae, 0x02, 0xbd, 0x3e, 0x18, 0x55, 0xa6, 0x3e,
  0x35, 0xf7, 0x7f, 0x3e, 0x10, 0xb6, 0x8b, 0xbe, 0x1d, 0x44, 0x02, 0xbe,
  0x99, 0xee, 0xd7, 0xbf, 0xa3, 0x1e, 0xa1, 0xbd, 0x26, 0xce, 0x91, 0x3f,
  0xd8, 0x94, 0x6d, 0x3e, 0xc4, 0xce, 0xad, 0x3e, 0xc8, 0xf2, 0x1e, 0x3e,
  0x60, 0x0d, 0x8c, 0xbd, 0x2c, 0x8a, 0x91, 0xbe, 0xfb, 0xfe, 0x76, 0xbe,
  0x40, 0x73, 0x28, 0xbd, 0x36, 0x36, 0x82, 0xbe, 0xb0, 0x21, 0x97, 0x3e,
  0x8c, 0x61, 0x6a, 0x3e, 0xc5, 0xf6, 0x52, 0xbe, 0x4b, 0x6c, 0x2b, 0xbe,
  0xd4, 0x9d, 0x8c, 0xbd, 0xc0, 0xec, 0xa7, 0xbe, 0x70, 0xae, 0xff, 0xbd,
  0x6c, 0x6a, 0x25, 0x3e, 0x74, 0xf0, 0x3c, 0x3e, 0xaa, 0x2d, 0xa7, 0xbe,
  0x80, 0x9a, 0xa9, 0x3b, 0xd5, 0x1e, 0x97, 0xbe, 0xd0, 0x78, 0xeb, 0x3d,
  0x0c, 0x8d, 0xa3, 0x3e, 0xf0, 0x35, 0x51, 0xbe, 0x94, 0xbd, 0x03, 0xbe,
  0xdd, 0x80, 0x30, 0xbe, 0xa0, 0x81, 0x85, 0xbe, 0x68, 0x4f, 0xe9, 0xbd,
  0xc2, 0xf6, 0xad, 0xbe, 0xf8, 0x1d, 0x44, 0x3d, 0x3c, 0x9c, 0x30, 0x3e,
  0xd8, 0xa4, 0xce, 0xbd, 0x84, 0x4a, 0x84, 0x3e, 0x78, 0xf0, 0xf1, 0x3d,
  0xb8, 0xaf, 0xbd, 0x3e, 0x00, 0xe6, 0x06, 0x3a, 0x80, 0xdf, 0x3e, 0x3e,
  0x39, 0xd4, 0x2b, 0x3f, 0x0e, 0x73, 0xa5, 0x3e, 0xc5, 0xf2, 0xac, 0x3e,
  0xd3, 0x8c, 0xc1, 0x3d, 0xe7, 0x33, 0x8f, 0x3e, 0x5a, 0x0b, 0xbe, 0x3e,
  0x20, 0xd0, 0x08, 0xbf, 0x18, 0x1b, 0x4c, 0xbd, 0x35, 0xf6, 0xf0, 0xbd,
  0xce, 0x1c, 0x07, 0xbb, 0xd0, 0x8f, 0x25, 0xbb, 0xc1, 0xe3, 0xe4, 0xbd,
  0xe8, 0x16, 0xcf, 0xbe, 0xfb, 0xa1, 0x15, 0x3e, 0x26, 0x25, 0x1f, 0xbe,
  0xac, 0xa2, 0xd2, 0x3e, 0xff, 0x60, 0xc4, 0xbe, 0xd9, 0x6d, 0x2a, 0x3f,
  0xa5, 0xec, 0x7b, 0xbe, 0x5c, 0xbd, 0x75, 0x3d, 0xac, 0xf0, 0x82, 0xbe,
  0xae, 0xfa, 0x3e, 0xbe, 0x18, 0xa9, 0x55, 0xbe, 0x6e, 0xb7, 0x1b, 0x3f,
  0x58, 0x8d, 0x39, 0x3e, 0xb0, 0x6a, 0xf5, 0xbd, 0x15, 0x69, 0x50, 0x3d,
  0xeb, 0x50, 0x6a, 0xbd, 0xa2, 0xc1, 0x30, 0xbf, 0x34, 0x09, 0x0d, 0x3e,
  0x8a, 0x21, 0xc7, 0x3d, 0xd5, 0x2c, 0xb2, 0xbe, 0xc8, 0x09, 0x8a, 0x3d,
  0x0f, 0xfa, 0xe9, 0x3e, 0x5d, 0xdb, 0x30, 0x3e, 0xe6, 0x7e, 0x8e, 0x3e,
  0x04, 0x4d, 0xa2, 0xbe, 0x08, 0x69, 0x1e, 0xbd, 0x0b, 0xd1, 0x84, 0xbd,
  0x5d, 0x31, 0x39, 0xbe, 0x05, 0x6b, 0xa2, 0xbe, 0x2d, 0x99, 0xb2, 0xbe,
  0xc9, 0x6b, 0x27, 0x3e, 0xfa, 0xad, 0x0c, 0x3f, 0x22, 0x7a, 0x01, 0xbe,
  0x9a, 0x86, 0x43, 0x3e, 0xc2, 0xaf, 0xdc, 0xbe, 0x21, 0x85, 0x84, 0x3e,
  0x3b, 0x6b, 0x94, 0xbe, 0x25, 0xaa, 0xe7, 0x3d, 0xca, 0x6c, 0x8d, 0xbd,
  0xa2, 0x7b, 0x1a, 0x3e, 0x39, 0x49, 0xaf, 0xbe, 0xa2, 0xef, 0x09, 0xbe,
  0x08, 0x5e, 0x8f, 0x3e, 0xbb, 0x9c, 0x0b, 0x3e, 0xcd, 0x20, 0x48, 0x3f,
  0xfe, 0x70, 0x13, 0x3d, 0xaa, 0xf7, 0x0d, 0x3e, 0xf5, 0xb6, 0xb7, 0xbe,
  0xbd, 0xba, 0x75, 0xbd, 0x87, 0xc8, 0x09, 0x3e, 0xd4, 0x09, 0xac, 0xbd,
  0x04, 0xb9, 0x18, 0x3e, 0x0e, 0xe4, 0xbd, 0x3c, 0x6f, 0xb1, 0x0e, 0x3e,
  0xaa, 0x34, 0x34, 0x3e, 0x30, 0x76, 0x14, 0xbe, 0x49, 0xf7, 0x54, 0xbe,
  0x34, 0x3c, 0x90, 0xbe, 0xfb, 0xf9, 0x99, 0x3e, 0xb0, 0xe4, 0xa1, 0x3e,
  0x9a, 0x52, 0xaf, 0x3e, 0x4e, 0x37, 0x4d, 0x3e, 0x67, 0x80, 0xe6, 0xbe,
  0x13, 0x3f, 0xcf, 0xbe, 0xda, 0x61, 0x06, 0x3e, 0xb3, 0x2f, 0xea, 0xbd,
  0x70, 0x3f, 0x81, 0xbd, 0x95, 0xf8, 0xae, 0x3e, 0x40, 0xa7, 0x1f, 0xbc,
  0x01, 0x28, 0xce, 0xbf, 0x71, 0x07, 0x0b, 0x3e, 0x02, 0x43, 0xc7, 0x3e,
  0x60, 0x02, 0x71, 0x3d, 0x40, 0x7e, 0xc0, 0x3d, 0x57, 0x04, 0xbc, 0xbc,
  0x2c, 0x9e, 0x4b, 0xbe, 0xff, 0x9b, 0xa1, 0xbe, 0x23, 0x6d, 0x2d, 0xbf,
  0xb2, 0xbd, 0x48, 0xbe, 0x8c, 0xbd, 0x0c, 0x3f, 0x29, 0x01, 0x58, 0x3e,
  0x2b, 0x47, 0x83, 0xbe, 0x90, 0x01, 0xc1, 0x3c, 0x6b, 0x5f, 0x81, 0xbe,
  0x5e, 0x8c, 0x89, 0x3e, 0x2c, 0x99, 0x96, 0xbd, 0xd8, 0xb9, 0xb6, 0xbe,
  0xd0, 0xa0, 0xd0, 0x3c, 0x8c, 0xe2, 0x49, 0x3e, 0xaf, 0x5c, 0x15, 0xbe,
  0x68, 0x70, 0x1d, 0xbd, 0x48, 0xfe, 0x1c, 0x3e, 0x3c, 0x77, 0x94, 0xbe,
  0xd7, 0xdf, 0x91, 0xbe, 0x98, 0xd6, 0xca, 0x3d, 0xc4, 0x5c, 0x29, 0x3e,
  0x78, 0x7a, 0x06, 0x3e, 0x30, 0x6a, 0xbd, 0x3d, 0x90, 0x9f, 0xe5, 0x3c,
  0x71, 0x79, 0x3e, 0xbe, 0x9f, 0xd3, 0xb2, 0xbe, 0x00, 0x80, 0x00, 0x3c,
  0x74, 0x4d, 0x5f, 0xbe, 0x50, 0x32, 0xdd, 0x3d, 0xa9, 0x74, 0xac, 0xbe,
  0x40, 0xaf, 0xc3, 0xbd, 0x3c, 0x7c, 0x6a, 0x3e, 0x54, 0x04, 0xe1, 0x3d,
  0x10, 0xc6, 0x41, 0x3e, 0x91, 0xf7, 0x6e, 0xbe, 0x28, 0xfe, 0x38, 0xbd,
  0x6c, 0xfe, 0xdd, 0xbd, 0x50, 0x4d, 0x94, 0xbd, 0x6d, 0xa4, 0x48, 0xbe,
  0x00, 0x00, 0x00, 0x00, 0x66, 0xf0, 0xff, 0xff, 0x04, 0x00, 0x00, 0x00,
  0x00, 0x04, 0x00, 0x00, 0x02, 0x0b, 0x0c, 0x09, 0xf6, 0xf9, 0x0a, 0x02,
  0xf2, 0xf5, 0x00, 0xfe, 0xf1, 0x04, 0xf2, 0x0e, 0xfc, 0x00, 0x0a, 0xfe,
  0x0e, 0xfb, 0x06, 0xfc, 0xf6, 0x07, 0xfc, 0xff, 0xef, 0xfc, 0xfb, 0xf1,
  0xf2, 0x09, 0x0c, 0x01, 0x0b, 0x06, 0xf5, 0x07, 0x09, 0x06, 0x02, 0x08,
  0xf1, 0x03, 0xf8, 0xff, 0x01, 0xf6, 0x0e, 0x02, 0xf7, 0xf7, 0x07, 0x0f,
  0xfd, 0x05, 0xf4, 0x06, 0xf4, 0xf2, 0xf8, 0xf4, 0x06, 0x02, 0x05, 0x01,
  0xde, 0xf6, 0xf9, 0x00, 0x01, 0x07, 0x05, 0x0a, 0x0d, 0xf0, 0x03, 0x05,
  0xfc, 0xf3, 0x0f, 0xfd, 0xf5, 0x06, 0x03, 0xf3, 0x0e, 0xfb, 0x07, 0x05,
  0xee, 0x00, 0x08, 0x0d, 0x02, 0x0a, 0x0a, 0xf6, 0x0a, 0xfe, 0xfa, 0xfe,
  0xfa, 0x03, 0x10, 0xf8, 0xfe, 0xfa, 0x0e, 0x04, 0xf7, 0xf9, 0x00, 0x0a,
  0x0e, 0xf6, 0xf1, 0x01, 0x04, 0xf4, 0x0d, 0xf4, 0xe1, 0xfe, 0x07, 0xfa,
  0xfe, 0xfa, 0x01, 0x0f, 0x01, 0xfb, 0x04, 0x03, 0x01, 0x0c, 0xff, 0xfa,
  0xf5, 0xfa, 0xec, 0xea, 0x0a, 0xf8, 0x06, 0xfa, 0xfd, 0xfd, 0xf7, 0xfc,
  0xf5, 0xf8, 0x05, 0x06, 0xff, 0x0c, 0xf9, 0x07, 0xf5, 0x08, 0x01, 0xfa,
  0x13, 0xfd, 0x07, 0xf2, 0xf2, 0x00, 0x02, 0x06, 0xf7, 0x01, 0x07, 0xf8,
  0x12, 0x0e, 0x11, 0x06, 0x07, 0x0e, 0x09, 0xf1, 0x0d, 0xfc, 0x04, 0x08,
  0x0a, 0xf4, 0x03, 0x09, 0x05, 0xec, 0xf6, 0x04, 0xfb, 0xf7, 0xfa, 0x09,
  0x08, 0x0e, 0xf6, 0x05, 0xf4, 0xfe, 0xe6, 0xf1, 0xf3, 0xf3, 0x12, 0x01,
  0x08, 0x00, 0xfa, 0x00, 0xfc, 0xff, 0x05, 0xfd, 0x08, 0xfc, 0x03, 0x0d,
  0xfa, 0xf6, 0x03, 0xfe, 0x0d, 0xff, 0xf4, 0x0b, 0x02, 0x0e, 0xff, 0x0f,
  0xf6, 0xf6, 0x05, 0xf8, 0xfc, 0xfb, 0xf8, 0x0e, 0xfc, 0x09, 0xfd, 0x0b,
  0xfa, 0x0b, 0x01, 0xfc, 0xf3, 0xfa, 0x08, 0x00, 0x03, 0xf1, 0x04, 0xf9,
  0xea, 0x02, 0x08, 0xfd, 0xf1, 0x0e, 0x03, 0xf7, 0x03, 0xff, 0x04, 0xfc,
  0x04, 0xfd, 0xe2, 0x0f, 0xfb, 0xf6, 0xe3, 0xf2, 0xfb, 0x08, 0xff, 0xfd,
  0xf3, 0xfa, 0xf3, 0x00, 0x08, 0xf6, 0xfa, 0x03, 0xff, 0xf7, 0x0f, 0x05,
  0xfd, 0x0b, 0xfb, 0xf9, 0xf9, 0xf6, 0xf4, 0x03, 0x05, 0xf2, 0x0e, 0xff,
  0x09, 0xfa, 0xff, 0x09, 0xf8, 0xf9, 0x0e, 0xf4, 0x00, 0xfb, 0x0a, 0xf2,
  0x02, 0xdb, 0xf8, 0x03, 0xf7, 0x0d, 0x0d, 0xf1, 0xf4, 0x04, 0xf6, 0xfd,
  0xfc, 0x04, 0x17, 0xdc, 0x04, 0xf3, 0x09, 0x06, 0x0b, 0xf8, 0xde, 0xf2,
  0xfb, 0xf1, 0x0d, 0xf5, 0x09, 0xf7, 0x0d, 0xfe, 0xf6, 0x0d, 0x01, 0x0b,
  0x08, 0x06, 0x0f, 0xf5, 0xfb, 0xfc, 0x0d, 0x08, 0xfe, 0xf8, 0xf8, 0xf4,
  0xf3, 0x0c, 0x0a, 0xf9, 0xf3, 0x01, 0x0a, 0x0f, 0xfc, 0xfd, 0x07, 0xf2,
  0x06, 0xf6, 0x04, 0xf0, 0x04, 0xfa, 0xfd, 0xcf, 0xf1, 0x08, 0x06, 0x11,
  0x05, 0xf5, 0x03, 0xf9, 0xf3, 0x15, 0xed, 0x08, 0x0e, 0xf7, 0xe6, 0xf7,
  0x08, 0x04, 0x02, 0x0f, 0xff, 0xf9, 0xf1, 0xfd, 0x00, 0xfc, 0xfb, 0x0c,
  0xf6, 0xd7, 0xf3, 0xe7, 0xc7, 0x03, 0xf6, 0x07, 0x02, 0x0b, 0xf4, 0x09,
  0xd8, 0xc5, 0x04, 0xef, 0x0a, 0x00, 0x0b, 0x0e, 0xfc, 0x09, 0x0e, 0xf9,
  0x08, 0xfe, 0x02, 0x01, 0xf3, 0x0a, 0xfe, 0xfa, 0xfd, 0x0b, 0x01, 0xeb,
  0xde, 0xf6, 0x05, 0xf9, 0x01, 0xfb, 0x0a, 0xf8, 0xbc, 0xfe, 0xdd, 0xed,
  0x0c, 0x0b, 0x01, 0x05, 0x00, 0x0f, 0xe7, 0x02, 0xfc, 0x09, 0x08, 0xfa,
  0xef, 0xf5, 0xf1, 0x00, 0x09, 0x0c, 0x0b, 0x0f, 0x0b, 0xfc, 0x01, 0x07,
  0xf1, 0x05, 0xf2, 0x0c, 0xfa, 0xfd, 0x01, 0x03, 0x03, 0x0b, 0x03, 0xf2,
  0xf8, 0x0e, 0x0e, 0x06, 0xf8, 0x0d, 0xfd, 0xfe, 0xfc, 0xf8, 0xf0, 0xf7,
  0xf2, 0xfc, 0xf5, 0x03, 0x0c, 0xf4, 0x07, 0xfb, 0x0f, 0xfe, 0xf4, 0xf9,
  0xf9, 0x0b, 0xf0, 0xfb, 0x02, 0xfe, 0x07, 0xf1, 0xfa, 0x02, 0x08, 0x02,
  0xf7, 0x09, 0x08, 0x0c, 0x0d, 0x09, 0x04, 0xf2, 0xfd, 0xed, 0xf4, 0xf7,
  0xf4, 0x04, 0x02, 0x01, 0xf6, 0xf4, 0x03, 0xf4, 0xff, 0x01, 0xec, 0xec,
  0xf3, 0x0a, 0xe7, 0xfc, 0x0c, 0xf6, 0xff, 0xf7, 0x03, 0xfb, 0x09, 0xf7,
  0xf5, 0xf8, 0x03, 0x0a, 0xf3, 0x09, 0x01, 0xfd, 0xff, 0xf4, 0x02, 0xfe,
  0xf5, 0xf8, 0xe8, 0x0c, 0x0c, 0x05, 0x1b, 0xf9, 0x02, 0xf1, 0x0a, 0xf4,
  0xf1, 0xfb, 0xd2, 0x04, 0xf1, 0xf2, 0x01, 0x02, 0xee, 0xff, 0x06, 0xf1,
  0xed, 0x02, 0xee, 0xd3, 0xb3, 0xf1, 0x05, 0xf7, 0x00, 0x06, 0x10, 0xf8,
  0x07, 0xff, 0xfc, 0xf5, 0xf4, 0xfb, 0xec, 0xfe, 0xfe, 0x06, 0x01, 0x08,
  0xf2, 0xfb, 0xf6, 0xf2, 0x0c, 0x0e, 0x0a, 0x18, 0x05, 0x07, 0xf7, 0xe0,
  0xe5, 0x01, 0xfe, 0xf6, 0x08, 0xf8, 0x28, 0x0b, 0xf4, 0x0a, 0xdc, 0xe6,
  0x0b, 0xfb, 0xed, 0x0e, 0xf8, 0xf6, 0xff, 0x0e, 0x09, 0xed, 0x11, 0xf5,
  0xe2, 0x0b, 0x07, 0x04, 0x0a, 0xf5, 0xf6, 0x02, 0xfe, 0x03, 0x01, 0x0e,
  0x0f, 0xff, 0x04, 0x0f, 0xf9, 0xe7, 0x02, 0x13, 0x0b, 0xfc, 0x08, 0xf2,
  0xff, 0xfb, 0xfb, 0x06, 0xf8, 0x03, 0xf6, 0x01, 0xff, 0xf2, 0x0b, 0x06,
  0xff, 0xf4, 0x00, 0x0d, 0xf1, 0x0f, 0xf4, 0xfd, 0x0e, 0x03, 0xfc, 0xf1,
  0x02, 0xfb, 0xfe, 0x05, 0x04, 0xf1, 0x05, 0x0b, 0xf8, 0x07, 0x0b, 0x0f,
  0xf4, 0x0d, 0xfc, 0xfc, 0xf6, 0xf7, 0xff, 0xf2, 0xf9, 0x00, 0x02, 0x00,
  0x0b, 0xfb, 0xfa, 0xf8, 0x02, 0x03, 0x01, 0xf2, 0xf1, 0xfe, 0xfe, 0x01,
  0xf2, 0x0c, 0xf2, 0xf1, 0xf4, 0xf5, 0xf9, 0x09, 0xf2, 0xfb, 0xf4, 0xf6,
  0x04, 0xfc, 0x02, 0xf2, 0x0c, 0xfa, 0x05, 0xf8, 0xf1, 0xfa, 0x0c, 0xfd,
  0x0e, 0xf8, 0xff, 0xf8, 0xfa, 0xfe, 0x0f, 0xf2, 0x00, 0x0a, 0xf4, 0x0c,
  0xf8, 0xf5, 0x01, 0xf8, 0xfb, 0xf2, 0xfd, 0x09, 0x0d, 0xfe, 0xfa, 0xf8,
  0x03, 0x03, 0x00, 0x15, 0x2d, 0x0b, 0xf5, 0x04, 0x00, 0xfa, 0x03, 0xf1,
  0x0c, 0xe9, 0x23, 0xff, 0x02, 0xf8, 0x1f, 0x02, 0xfe, 0x08, 0xe3, 0x06,
  0x0f, 0x02, 0xea, 0xff, 0xf1, 0x0c, 0x06, 0xfa, 0xfd, 0xff, 0xf7, 0xf9,
  0xf4, 0xfb, 0x07, 0x04, 0x00, 0x03, 0xe6, 0xff, 0x09, 0x07, 0x0b, 0xfd,
  0x02, 0xf1, 0x07, 0x0d, 0xfd, 0x02, 0xd3, 0x0b, 0xfb, 0x04, 0x01, 0xff,
  0xec, 0xf7, 0x03, 0xf7, 0xfe, 0xf2, 0x0a, 0x01, 0xf3, 0xf6, 0x01, 0xfe,
  0xf9, 0xfe, 0xfa, 0x0b, 0x14, 0x81, 0x0a, 0xf3, 0x0c, 0x0a, 0x0e, 0xfe,
  0xf4, 0xfa, 0xef, 0xf8, 0xfe, 0xf3, 0xff, 0x01, 0xf1, 0xf2, 0x0f, 0xfb,
  0xec, 0x16, 0x0c, 0xf7, 0x05, 0xf6, 0x00, 0x03, 0xfd, 0xfb, 0x0f, 0xf7,
  0x1e, 0x10, 0xce, 0x10, 0xdf, 0xfb, 0xf8, 0x00, 0xfa, 0x02, 0x12, 0x02,
  0xfe, 0x00, 0xf5, 0x08, 0x0b, 0x04, 0xf2, 0x02, 0xf1, 0x07, 0xf6, 0xea,
  0xf4, 0xf4, 0x0a, 0xf2, 0xf9, 0x05, 0xf4, 0x0a, 0xea, 0xe9, 0x1b, 0x03,
  0x08, 0xfe, 0x05, 0xf6, 0xf3, 0xff, 0xe7, 0x0f, 0xfd, 0xf4, 0xe0, 0xf9,
  0xeb, 0x06, 0xf4, 0xfe, 0xf4, 0x10, 0x07, 0xfb, 0xd2, 0xf3, 0x0c, 0xf7,
  0xfd, 0xfd, 0xf5, 0x02, 0x14, 0x07, 0x13, 0x04, 0x05, 0xfb, 0xf2, 0x02,
  0xff, 0xf3, 0xef, 0x0a, 0xf8, 0xf5, 0xf8, 0xfc, 0xf7, 0xff, 0x0c, 0xf5,
  0xfb, 0xf2, 0x0d, 0xf8, 0xfa, 0x05, 0xf8, 0xf7, 0x07, 0xf1, 0xff, 0x00,
  0xf4, 0x02, 0xfc, 0xf6, 0x02, 0xf9, 0x04, 0xfd, 0xfd, 0xf9, 0xef, 0x09,
  0xf8, 0xf7, 0x04, 0x05, 0xf9, 0xf2, 0xfd, 0xff, 0x00, 0x00, 0x00, 0x00,
  0x76, 0xf4, 0xff, 0xff, 0x04, 0x00, 0x00, 0x00, 0x00, 0x08, 0x00, 0x00,
  0x1f, 0x2f, 0x84, 0x3e, 0xae, 0x86, 0x03, 0x3e, 0x2e, 0x84, 0x70, 0x3e,
  0xf7, 0xd8, 0x43, 0xbd, 0xd4, 0x96, 0xfc, 0x3c, 0x50, 0x50, 0xfb, 0x3c,
  0xce, 0xa4, 0x09, 0x3e, 0x0f, 0x85, 0x8a, 0xbc, 0x07, 0xfd, 0xa6, 0x3e,
  0x6c, 0x3c, 0x9e, 0x3d, 0xea, 0x23, 0x35, 0x3e, 0xe6, 0x89, 0x92, 0xbe,
  0x76, 0xa4, 0x0c, 0xbe, 0xf4, 0xd1, 0xb3, 0xbe, 0xf3, 0x46, 0xb3, 0x3e,
  0x91, 0x46, 0x1e, 0x3e, 0xa3, 0xaa, 0x9f, 0xbe, 0xae, 0x9d, 0x63, 0x3e,
  0xe0, 0x92, 0x36, 0xbe, 0xfe, 0xe5, 0x1c, 0xbe, 0xca, 0xb1, 0x9e, 0xbe,
  0x00, 0x54, 0xa8, 0x3c, 0xf0, 0x1a, 0x35, 0xbe, 0x0a, 0x96, 0x92, 0x3e,
  0xf0, 0xa5, 0xfd, 0x3c, 0x15, 0xc5, 0x8f, 0x3e, 0x38, 0x78, 0x63, 0x3e,
  0x78, 0x2c, 0x89, 0x3e, 0xe8, 0x96, 0x61, 0xbd, 0xbf, 0x56, 0xa1, 0x3e,
  0xc8, 0xc8, 0x8e, 0xbd, 0x95, 0x93, 0x6f, 0xbe, 0xe8, 0x8b, 0xb7, 0x3d,
  0x80, 0x4f, 0xaa, 0xbb, 0xc8, 0x47, 0xfc, 0x3d, 0x37, 0x18, 0x5d, 0x3e,
  0x23, 0x30, 0xa2, 0xbe, 0xed, 0xd5, 0x9d, 0x3e, 0x47, 0x4a, 0xa1, 0xbe,
  0x57, 0xd6, 0x3a, 0x3d, 0x58, 0x94, 0x0a, 0x3e, 0x65, 0x1b, 0x99, 0x3e,
  0xd6, 0x4e, 0x5d, 0xbe, 0x0e, 0x77, 0x71, 0x3e, 0xc0, 0xfc, 0x36, 0x3d,
  0xf8, 0x82, 0x8d, 0xbe, 0xac, 0xd4, 0xfa, 0xbd, 0xcd, 0x1a, 0xb0, 0xbe,
  0x74, 0xfe, 0x9a, 0xbd, 0x12, 0xd3, 0x57, 0xbe, 0x12, 0x96, 0xa2, 0xbe,
  0x71, 0x64, 0x6f, 0xbd, 0xda, 0xfa, 0x67, 0xbe, 0x16, 0xff, 0x69, 0x3e,
  0x72, 0x4f, 0x10, 0xbf, 0x60, 0x7e, 0xda, 0x3a, 0x00, 0x27, 0xc9, 0xbb,
  0xb8, 0xc1, 0x21, 0xbe, 0x12, 0xab, 0x8e, 0x3d, 0x98, 0x53, 0x9d, 0xbd,
  0xcb, 0xcd, 0x06, 0xbe, 0x3f, 0x7d, 0x28, 0xbe, 0x0a, 0xc1, 0x57, 0xbe,
  0x22, 0x9d, 0x87, 0x3e, 0x08, 0x53, 0x51, 0x3d, 0xcc, 0x9f, 0x88, 0x3d,
  0x62, 0x74, 0x18, 0xbe, 0x4a, 0x12, 0x2c, 0x3e, 0xd9, 0xd3, 0x15, 0xbf,
  0x68, 0xb5, 0x88, 0x3d, 0xcb, 0xda, 0x8f, 0x3e, 0xdc, 0xc3, 0xa9, 0xbe,
  0x7d, 0xad, 0x23, 0xbe, 0x70, 0xe4, 0x5d, 0xbd, 0x15, 0x82, 0x99, 0xbe,
  0xa3, 0x7b, 0x66, 0xbe, 0x08, 0xe0, 0x74, 0x3d, 0x2e, 0x01, 0x6e, 0xbe,
  0xd0, 0x1a, 0xde, 0xbd, 0x71, 0x3b, 0x90, 0x3e, 0x63, 0x53, 0x7e, 0xbe,
  0x2a, 0xda, 0x07, 0x3e, 0xa4, 0xc2, 0x8e, 0x3d, 0xf2, 0x2a, 0x44, 0xbe,
  0xf0, 0x69, 0xcd, 0x3d, 0x7a, 0x1f, 0x23, 0x3e, 0xd0, 0xac, 0x5f, 0x3d,
  0xaa, 0xff, 0x4a, 0xbe, 0xe0, 0x7c, 0x66, 0x3d, 0xb5, 0xe8, 0x93, 0xbe,
  0xa0, 0x33, 0x1b, 0x3c, 0xe0, 0x6f, 0x64, 0xbc, 0x47, 0x0c, 0x9b, 0xbe,
  0x70, 0x9d, 0x82, 0xbd, 0x31, 0x22, 0x96, 0xbe, 0x31, 0x63, 0x53, 0xbe,
  0x16, 0xdd, 0x18, 0x3e, 0x94, 0xa1, 0x86, 0x3d, 0xf0, 0x58, 0x88, 0x3c,
  0x4f, 0x61, 0xe4, 0x3d, 0xd2, 0x90, 0x43, 0xbe, 0x1b, 0x2f, 0x9f, 0xbe,
  0x0b, 0x63, 0xb6, 0xbe, 0x5e, 0x5e, 0xe2, 0xbd, 0x17, 0xbc, 0x95, 0x3e,
  0xd7, 0x7d, 0xab, 0x3e, 0x53, 0x0b, 0x22, 0xbe, 0xd7, 0xbe, 0x85, 0xbe,
  0xca, 0x10, 0x31, 0x3e, 0x0f, 0xb6, 0x8d, 0xbe, 0x80, 0x36, 0x31, 0x3b,
  0xf4, 0x0c, 0x99, 0x3e, 0xf0, 0x24, 0x71, 0xbe, 0x9b, 0x8e, 0xa4, 0xbe,
  0xc3, 0xb9, 0x9b, 0x3e, 0x4b, 0x87, 0xfe, 0xbc, 0xba, 0x77, 0x5a, 0x3d,
  0xf5, 0x91, 0x9b, 0x3e, 0x34, 0x23, 0x1e, 0x3e, 0xe1, 0x55, 0x87, 0x3e,
  0x27, 0x22, 0xa4, 0x3e, 0xe6, 0x9a, 0x25, 0x3e, 0x4e, 0xdb, 0xbd, 0xbe,
  0x87, 0x2e, 0xf5, 0xbd, 0x4e, 0x4d, 0x7b, 0x3e, 0x33, 0xa3, 0x80, 0x3e,
  0xaa, 0x40, 0x44, 0x3e, 0xa8, 0x46, 0x37, 0x3e, 0xa5, 0x8b, 0x08, 0xbe,
  0xbe, 0x11, 0x20, 0x3e, 0x58, 0x76, 0x35, 0x3d, 0x4d, 0xdd, 0x87, 0xbe,
  0x85, 0xbf, 0xa7, 0x3e, 0x15, 0x0e, 0xa7, 0x3e, 0x60, 0xe9, 0xa7, 0xbd,
  0xa0, 0x6a, 0x94, 0xbc, 0x5d, 0x5e, 0x98, 0x3e, 0xd2, 0x08, 0x95, 0xbe,
  0x70, 0x2f, 0xa7, 0xbe, 0x79, 0x1d, 0x94, 0x3e, 0x70, 0xa0, 0xb8, 0xbc,
  0x30, 0xd7, 0xe0, 0xbc, 0x1a, 0x20, 0x70, 0x3e, 0xef, 0xa9, 0x90, 0xbe,
  0x28, 0x2a, 0xfe, 0xbd, 0x62, 0x1a, 0x60, 0x3e, 0xec, 0x29, 0x23, 0xbe,
  0x38, 0x1a, 0x89, 0x3e, 0x7f, 0xad, 0x78, 0x3e, 0x08, 0x52, 0x8c, 0xbe,
  0xee, 0x76, 0x9e, 0xbe, 0xf1, 0xe8, 0x03, 0x3c, 0x60, 0x1f, 0x48, 0xbd,
  0xdc, 0xac, 0xe8, 0xbd, 0x7d, 0xbf, 0x62, 0x3e, 0xd0, 0xc4, 0x83, 0xbe,
  0xa0, 0x13, 0xe1, 0xbc, 0x00, 0x89, 0x7f, 0x3d, 0x10, 0x61, 0xa1, 0xbc,
  0x9f, 0xf3, 0xc5, 0xbe, 0xfc, 0x56, 0x8c, 0xbd, 0xa1, 0xd1, 0xb2, 0xbe,
  0x6c, 0xab, 0xaa, 0x3d, 0x0c, 0x2d, 0x29, 0x3e, 0x24, 0xd5, 0x00, 0xbe,
  0x10, 0x8e, 0x91, 0x3c, 0xc9, 0x1b, 0x0b, 0x3e, 0x81, 0x24, 0x20, 0xbd,
  0x00, 0xa3, 0x24, 0xbd, 0xd4, 0xa5, 0x8e, 0xbd, 0xc4, 0xbd, 0x4f, 0x3e,
  0x90, 0x30, 0xba, 0xbe, 0x8c, 0xb1, 0xb6, 0xbd, 0xbf, 0x6a, 0x81, 0xbe,
  0x00, 0x6a, 0x37, 0x3d, 0x7b, 0x8d, 0x53, 0x3e, 0xd8, 0x61, 0x2d, 0xbe,
  0xc9, 0x8e, 0x1d, 0xbe, 0x1b, 0xcf, 0x33, 0xbe, 0xa4, 0x57, 0xb0, 0xbd,
  0xc0, 0xc0, 0xed, 0x3c, 0x34, 0xea, 0x7d, 0xbe, 0x6e, 0xe5, 0x2a, 0x3e,
  0x9c, 0x69, 0x8a, 0x3d, 0x0e, 0x0b, 0x5a, 0x3e, 0x90, 0x11, 0xa6, 0xbc,
  0x40, 0x80, 0xac, 0x3c, 0xe5, 0x11, 0x90, 0xbe, 0x71, 0xa9, 0x3d, 0xbe,
  0xad, 0x03, 0xa9, 0x3e, 0x5f, 0xfa, 0xa4, 0x3e, 0xdd, 0x28, 0x12, 0xbe,
  0xb5, 0xaa, 0x83, 0xbe, 0x53, 0xfd, 0xae, 0xbe, 0xcb, 0x43, 0x35, 0xbe,
  0x34, 0x29, 0x28, 0xbd, 0x7f, 0x70, 0xfe, 0x3e, 0xc0, 0x3a, 0x40, 0xbd,
  0x46, 0x2d, 0xa9, 0x3e, 0xc5, 0x55, 0x05, 0x3d, 0xf0, 0x35, 0x7e, 0xbd,
  0x58, 0x7c, 0x82, 0xbd, 0x6f, 0x25, 0xc9, 0x3e, 0x4c, 0x6b, 0xf7, 0xbd,
  0x10, 0x2a, 0xa3, 0xbc, 0xf0, 0x58, 0xa4, 0xbd, 0x93, 0xe1, 0x88, 0x3e,
  0x77, 0x76, 0xae, 0xbe, 0x21, 0x6d, 0xb0, 0x3e, 0x5c, 0x3b, 0x73, 0xbe,
  0xbe, 0xc4, 0x00, 0x3e, 0xdd, 0xf3, 0x85, 0xbe, 0x57, 0x7b, 0xa8, 0x3e,
  0x52, 0xfb, 0x2f, 0xbe, 0xc9, 0x37, 0xec, 0x3e, 0x32, 0x71, 0xf7, 0x3e,
  0x12, 0xcc, 0x5e, 0xbe, 0x72, 0x32, 0x74, 0x3e, 0x91, 0xaa, 0x37, 0x3e,
  0x5c, 0x21, 0x36, 0x3e, 0xd9, 0x8b, 0xa3, 0xbe, 0x9d, 0x41, 0xb2, 0x3e,
  0x24, 0xb6, 0xdd, 0x3d, 0x68, 0xf4, 0x65, 0xbe, 0xae, 0x22, 0x61, 0x3e,
  0x36, 0xe6, 0xa8, 0xbe, 0x50, 0x1f, 0x80, 0x3c, 0x17, 0x29, 0x8e, 0x3e,
  0x0c, 0xee, 0xf7, 0x3e, 0x44, 0xd5, 0xbc, 0xbd, 0x92, 0x74, 0x24, 0xbc,
  0xe7, 0x66, 0xa6, 0xbe, 0x9f, 0xe0, 0x91, 0x3e, 0x3b, 0xdf, 0x90, 0xbe,
  0x6f, 0x4d, 0x29, 0x3e, 0x27, 0xb0, 0x48, 0xbe, 0xd0, 0x63, 0x51, 0x3d,
  0xa3, 0x08, 0x9f, 0x3e, 0x78, 0x2a, 0xd7, 0x3d, 0x37, 0x63, 0xa5, 0xbe,
  0x9c, 0x84, 0x13, 0x3e, 0xc6, 0xf2, 0x22, 0x3e, 0xde, 0x8b, 0x37, 0x3e,
  0x55, 0x4b, 0x99, 0xbe, 0xcb, 0xef, 0x19, 0x3e, 0x4d, 0x17, 0xa7, 0x3e,
  0x12, 0x47, 0x44, 0xbe, 0x0f, 0x28, 0x19, 0x3e, 0x29, 0x0c, 0x94, 0xbe,
  0x4c, 0xe7, 0xa7, 0x3d, 0x80, 0x0f, 0xba, 0x3d, 0x2d, 0x41, 0x2b, 0x3e,
  0xa0, 0x2c, 0x75, 0xbc, 0xba, 0x8e, 0x38, 0x3e, 0xf0, 0xe4, 0x28, 0x3d,
  0xbd, 0x43, 0x39, 0x3e, 0x6a, 0xef, 0x76, 0xbe, 0x44, 0x7a, 0xa7, 0x3d,
  0x0a, 0x7a, 0x68, 0x3e, 0x6e, 0x29, 0xb4, 0x3e, 0x31, 0x1d, 0x97, 0xbe,
  0x5a, 0x0b, 0x36, 0x3e, 0xac, 0x3a, 0x21, 0x3d, 0xfb, 0xb2, 0xbf, 0xbe,
  0x00, 0x4f, 0xa7, 0xba, 0xce, 0xcf, 0x1e, 0x3e, 0xeb, 0x94, 0x70, 0x3e,
  0xdc, 0xa1, 0xab, 0xbe, 0x73, 0xee, 0x28, 0xbe, 0xf0, 0x4e, 0x98, 0x3c,
  0x97, 0xe0, 0x85, 0x3e, 0x33, 0x60, 0xd9, 0x3e, 0x6a, 0x6a, 0x3a, 0xbe,
  0xa0, 0x7e, 0xf2, 0xbd, 0x07, 0x39, 0x98, 0x3e, 0x73, 0x5c, 0x37, 0xbe,
  0xb8, 0x36, 0x90, 0xbd, 0xbc, 0x7b, 0x04, 0x3e, 0x56, 0x8c, 0xc1, 0xbc,
  0xb5, 0xff, 0xeb, 0xbd, 0xf0, 0xa7, 0xf6, 0xbc, 0x6b, 0xc9, 0xaa, 0x3e,
  0x74, 0xf2, 0x7f, 0x3e, 0xa6, 0x67, 0x01, 0xbe, 0x9f, 0x1e, 0x83, 0x3e,
  0x48, 0x94, 0x01, 0x3e, 0x98, 0xf9, 0x59, 0xbd, 0xd7, 0x71, 0x57, 0x3e,
  0xb2, 0x2d, 0x62, 0x3e, 0xd9, 0x50, 0xa7, 0x3e, 0xda, 0x78, 0x1f, 0x3e,
  0x82, 0x31, 0x77, 0x3c, 0x55, 0x1f, 0xd8, 0xbe, 0xd9, 0x3f, 0x96, 0xbe,
  0xe6, 0xa6, 0x5c, 0xbe, 0x6e, 0xb1, 0xaf, 0x3d, 0x6a, 0x08, 0x9f, 0xbe,
  0xab, 0x6f, 0x8f, 0x3e, 0x66, 0xee, 0x56, 0xbe, 0xe9, 0x9e, 0x07, 0xbe,
  0xbe, 0x8e, 0x4e, 0x3e, 0x4b, 0x1f, 0x34, 0xbe, 0xea, 0x26, 0x74, 0x3e,
  0x94, 0x11, 0x98, 0x3e, 0xe8, 0xd8, 0x6f, 0x3d, 0xcb, 0x8c, 0x15, 0xbe,
  0x80, 0x31, 0xa7, 0xbc, 0xd5, 0x78, 0x8c, 0xbe, 0xbf, 0xd8, 0xa1, 0x3e,
  0xb6, 0x09, 0x7b, 0xbe, 0xb7, 0x61, 0x97, 0xbe, 0x3b, 0x11, 0xa7, 0x3e,
  0xe4, 0xc2, 0x64, 0xbe, 0x74, 0x1c, 0x80, 0x3d, 0xbb, 0xfc, 0xa1, 0xbe,
  0xe0, 0x9d, 0x0c, 0x3e, 0xd0, 0xb9, 0x04, 0x3d, 0x02, 0xf2, 0x41, 0x3e,
  0xe0, 0x9f, 0x5c, 0xbd, 0xd4, 0xc2, 0xe8, 0x3d, 0x12, 0x7e, 0x9f, 0xbe,
  0x5b, 0x1a, 0xa1, 0xbe, 0x7c, 0xa2, 0x97, 0x3d, 0x82, 0xdd, 0x7e, 0x3c,
  0xec, 0x27, 0xf6, 0x3c, 0xab, 0xf9, 0x2e, 0xbe, 0x45, 0x8c, 0x69, 0xbe,
  0x50, 0x33, 0x9e, 0xbe, 0x92, 0x39, 0x12, 0xbe, 0xa0, 0x02, 0x14, 0x3c,
  0x81, 0x7f, 0xf3, 0xbc, 0x10, 0xdc, 0x3c, 0x3d, 0x58, 0x1c, 0x91, 0xbd,
  0xff, 0xd5, 0x83, 0xbe, 0xaa, 0xed, 0x34, 0x3e, 0x31, 0x5c, 0x99, 0x3d,
  0xd6, 0xe3, 0x6c, 0x3e, 0xe4, 0x85, 0xe3, 0xbd, 0xfd, 0x68, 0x27, 0xbe,
  0xf0, 0x98, 0x47, 0xbd, 0x65, 0x72, 0x1c, 0xbe, 0x2a, 0x5e, 0x3c, 0xbe,
  0x61, 0x88, 0x3e, 0xbe, 0x05, 0xdc, 0xa5, 0x3e, 0xa1, 0x35, 0x81, 0x3e,
  0x42, 0xcb, 0x1a, 0x3e, 0xf8, 0x1f, 0x64, 0xbe, 0x64, 0xbb, 0x01, 0xbe,
  0x98, 0x46, 0xe0, 0x3d, 0x00, 0xc9, 0xf7, 0x3d, 0xdc, 0x04, 0xa9, 0xbe,
  0x20, 0xba, 0xe9, 0xbc, 0x0f, 0xf4, 0x9b, 0x3e, 0xe6, 0x64, 0x5b, 0x3e,
  0xab, 0xf2, 0x8f, 0x3e, 0x82, 0x3c, 0x2a, 0xbd, 0x92, 0x39, 0xf5, 0xbd,
  0x40, 0xba, 0xfd, 0xbd, 0xda, 0x26, 0x61, 0x3e, 0x19, 0xc4, 0xd7, 0x3e,
  0xc0, 0x1b, 0x9d, 0xbd, 0xff, 0xa1, 0x90, 0x3e, 0x5a, 0x9a, 0xdf, 0xbe,
  0x75, 0xa3, 0x2f, 0x3e, 0xdd, 0x86, 0x23, 0xbe, 0x7f, 0x33, 0xa4, 0x3e,
  0x78, 0x7e, 0xd9, 0xbd, 0xdf, 0xb9, 0xd5, 0x3d, 0x20, 0x13, 0xc4, 0x3d,
  0x7a, 0xe1, 0x32, 0x3e, 0x52, 0x95, 0x6e, 0x3e, 0xb8, 0x2c, 0x1e, 0x3d,
  0x40, 0x6f, 0xb2, 0xbc, 0xaa, 0x8b, 0x00, 0x3e, 0x00, 0x76, 0x2d, 0x3a,
  0xfd, 0x24, 0x7d, 0xbe, 0x78, 0xa3, 0xc4, 0xbd, 0x22, 0x00, 0x4f, 0x3e,
  0x30, 0x7f, 0x83, 0xbd, 0x90, 0x6f, 0xe8, 0x3c, 0x00, 0xfb, 0x6a, 0xbd,
  0x97, 0x48, 0x86, 0x3e, 0x29, 0x9b, 0x85, 0x3e, 0x98, 0x12, 0xad, 0xbe,
  0x25, 0x6b, 0x92, 0x3e, 0x6a, 0x9e, 0x77, 0x3e, 0x58, 0x79, 0xaa, 0xbd,
  0xc8, 0xc3, 0x80, 0xbe, 0x90, 0xac, 0x81, 0xbc, 0x09, 0x0b, 0x98, 0x3e,
  0x62, 0xb7, 0x85, 0xbe, 0xb2, 0x0a, 0xf4, 0xbd, 0x44, 0x4e, 0x86, 0x3d,
  0x45, 0x7a, 0x51, 0xbe, 0x20, 0x3f, 0xed, 0xbd, 0xe8, 0x3b, 0xe3, 0xbd,
  0x1e, 0x21, 0x43, 0xbe, 0xa5, 0x84, 0xa7, 0xbe, 0x5f, 0x90, 0xa2, 0xbe,
  0x46, 0xcc, 0x01, 0xbe, 0x84, 0x4f, 0x01, 0x3e, 0x9d, 0xc7, 0x95, 0x3e,
  0x20, 0xd3, 0x86, 0xbd, 0xd1, 0x46, 0x18, 0x3e, 0xf7, 0xfe, 0x29, 0xbe,
  0x52, 0x93, 0x87, 0xbe, 0x5c, 0x06, 0x8a, 0xbe, 0x27, 0x1f, 0x95, 0xbe,
  0x44, 0xc3, 0xbe, 0x3d, 0x17, 0x6a, 0xb3, 0x3e, 0xae, 0x6b, 0x76, 0xbe,
  0x0d, 0x65, 0xf2, 0xbc, 0x8f, 0xfd, 0x1d, 0xbe, 0xb8, 0x1f, 0x46, 0x3d,
  0xde, 0x9a, 0x60, 0x3e, 0x17, 0x46, 0xea, 0x3d, 0x1b, 0x94, 0x97, 0x3e,
  0x40, 0xcd, 0x99, 0xbd, 0x02, 0x3f, 0x77, 0x3e, 0xe7, 0xc9, 0x81, 0x3e,
  0x22, 0x7e, 0x76, 0xbc, 0xf4, 0x22, 0x42, 0xbe, 0xe2, 0xeb, 0x7c, 0xbe,
  0xe9, 0x9d, 0xcd, 0xbd, 0xa0, 0xd1, 0xa6, 0xbe, 0xc0, 0x0f, 0x7c, 0x3c,
  0x46, 0x3a, 0x4e, 0x3e, 0x47, 0xc3, 0xde, 0xbe, 0x6d, 0x15, 0x95, 0x3e,
  0x70, 0x0d, 0x75, 0xbd, 0x62, 0x57, 0x61, 0xbe, 0x62, 0x34, 0xf6, 0xbb,
  0x42, 0xc4, 0x3e, 0x3e, 0x78, 0xe6, 0x8b, 0xbd, 0x4b, 0x2e, 0x4a, 0xbe,
  0x22, 0xcf, 0x3a, 0x3e, 0xf0, 0x7c, 0x90, 0x3c, 0xe1, 0x2d, 0x85, 0x3e,
  0xd7, 0xfa, 0x10, 0xbe, 0x66, 0x66, 0x6c, 0xbe, 0x88, 0xdb, 0x97, 0xbd,
  0xca, 0x65, 0x4b, 0x3e, 0xc5, 0xc9, 0xa2, 0xbe, 0xe8, 0x04, 0x8d, 0xbe,
  0x08, 0x56, 0xa5, 0xbe, 0x16, 0x4a, 0x75, 0xbe, 0x1f, 0x9e, 0x97, 0x3e,
  0xd8, 0xfd, 0xb5, 0x3d, 0x72, 0x8c, 0x87, 0xbe, 0xe4, 0x14, 0x88, 0xbd,
  0xc0, 0x90, 0xa3, 0xbb, 0x66, 0xf2, 0xa9, 0x3c, 0x71, 0xa2, 0x04, 0xbf,
  0xa0, 0x51, 0x42, 0xbc, 0x37, 0xc8, 0x26, 0x3d, 0x4c, 0xdc, 0x3d, 0xbe,
  0x15, 0xdd, 0x35, 0xbe, 0x90, 0x79, 0x1d, 0xbd, 0xec, 0x4d, 0xfa, 0xbd,
  0xb6, 0xeb, 0xf5, 0x3c, 0x10, 0xc9, 0x0c, 0xbd, 0xae, 0x0f, 0x3b, 0x3e,
  0xb8, 0x0c, 0x05, 0x3d, 0x6a, 0x99, 0x73, 0x3e, 0x91, 0x50, 0x8f, 0x3e,
  0xea, 0x5f, 0x5c, 0x3e, 0x9b, 0x4b, 0x33, 0xbe, 0x59, 0x09, 0xa2, 0xbe,
  0x46, 0xd2, 0x89, 0xbe, 0xe2, 0x1f, 0x53, 0x3e, 0xe0, 0x0c, 0xb2, 0xbe,
  0x08, 0x61, 0xa7, 0x3d, 0x88, 0x39, 0x76, 0xbd, 0xf0, 0x78, 0x81, 0xbc,
  0x7e, 0xb3, 0x75, 0xbe, 0x28, 0xfa, 0x34, 0x3d, 0x00, 0x8e, 0x4d, 0xbe,
  0x16, 0xbe, 0x30, 0x3e, 0x6c, 0x5a, 0xb0, 0x3d, 0xc0, 0xa1, 0x13, 0x3c,
  0x34, 0xae, 0xaa, 0x3d, 0x18, 0x72, 0x08, 0x3d, 0x54, 0xfe, 0xfb, 0x3d,
  0xf0, 0x85, 0xd0, 0xbc, 0x77, 0x60, 0x9c, 0x3e, 0xa0, 0x6f, 0xee, 0xbd,
  0x46, 0x6a, 0x9e, 0xbe, 0x04, 0x18, 0xc3, 0xbd, 0xb0, 0xe9, 0x00, 0x3e,
  0x6b, 0x9b, 0x6a, 0xbe, 0x2a, 0x64, 0x4a, 0xbe, 0xe0, 0x02, 0x9a, 0x3c,
  0xd0, 0x0e, 0x85, 0xbe, 0x64, 0x26, 0xd6, 0x3d, 0xcf, 0x6d, 0x09, 0xbe,
  0x50, 0x36, 0x5e, 0xbd, 0x40, 0xa8, 0x6b, 0xbe, 0x40, 0x5c, 0x8d, 0x3b,
  0x1f, 0x55, 0x1f, 0xbe, 0x9f, 0x2f, 0x62, 0x3e, 0x8f, 0x29, 0xad, 0x3d,
  0x7c, 0x31, 0x48, 0xbe, 0x61, 0x5b, 0x49, 0x3e, 0x82, 0x9e, 0x9e, 0xbd,
  0x8b, 0x8b, 0xaa, 0x3e, 0xe0, 0xdc, 0x5e, 0x3c, 0xff, 0x53, 0xd3, 0xbe,
  0x3d, 0x57, 0xdb, 0xbd, 0xe0, 0x2d, 0x04, 0x3c, 0x10, 0x67, 0x0f, 0x3e,
  0xc1, 0x55, 0xa3, 0x3e, 0x95, 0x57, 0xb4, 0x3e, 0x00, 0x00, 0x00, 0x00,
  0x86, 0xfc, 0xff, 0xff, 0x04, 0x00, 0x00, 0x00, 0x00, 0x02, 0x00, 0x00,
  0x20, 0x35, 0x7a, 0xbe, 0x34, 0xe5, 0xfd, 0xbe, 0x60, 0x2b, 0x05, 0xbe,
  0x00, 0xd1, 0x77, 0x3c, 0x70, 0x8a, 0x9d, 0xbe, 0xc8, 0x14, 0x59, 0x3e,
  0x84, 0xe4, 0xc0, 0x3e, 0xbc, 0xc4, 0x97, 0x3e, 0xe0, 0x27, 0xd6, 0xbe,
  0x80, 0x45, 0xdc, 0xbd, 0x08, 0x15, 0x78, 0xbe, 0x50, 0x75, 0xb4, 0xbd,
  0xa8, 0xd6, 0x8e, 0xbe, 0x98, 0x7c, 0xce, 0xbe, 0xa8, 0x1e, 0x72, 0x3e,
  0x5c, 0xd1, 0xe1, 0x3e, 0x00, 0x0b, 0xdb, 0xbe, 0x10, 0x88, 0xe6, 0x3e,
  0x1c, 0xc2, 0xbe, 0xbe, 0xbc, 0x07, 0x93, 0x3e, 0x30, 0xf1, 0xed, 0xbe,
  0x14, 0x17, 0xf3, 0x3e, 0x30, 0xd8, 0xb2, 0x3d, 0x00, 0x02, 0xd5, 0xbb,
  0x12, 0x9e, 0x80, 0x3e, 0x0c, 0xd4, 0xd3, 0xbd, 0x0d, 0x2c, 0x1e, 0x3e,
  0xb2, 0x3b, 0x9b, 0x3e, 0x47, 0x51, 0xa6, 0xbe, 0x00, 0xcd, 0x2f, 0x3d,
  0x01, 0x4f, 0xb9, 0x3f, 0x01, 0xc0, 0x34, 0xbf, 0x2e, 0x14, 0x3e, 0x3d,
  0x7e, 0xfb, 0x36, 0xbe, 0x7b, 0x11, 0xcc, 0x3d, 0xca, 0x4a, 0x01, 0x3e,
  0xae, 0x91, 0x60, 0xbf, 0x40, 0xc1, 0xfa, 0x3c, 0x7c, 0x88, 0xa0, 0xbf,
  0x22, 0xa3, 0xe0, 0x3e, 0x04, 0x01, 0x85, 0xbe, 0x58, 0xc3, 0xbe, 0xbe,
  0x40, 0x96, 0xda, 0xbd, 0xf8, 0x92, 0xb2, 0xbe, 0x80, 0x3b, 0x89, 0xbc,
  0xec, 0x40, 0xff, 0x3e, 0x5c, 0xad, 0xc5, 0x3e, 0x60, 0x20, 0xdc, 0xbd,
  0x81, 0x84, 0xad, 0x3d, 0x66, 0x2d, 0x8e, 0xbd, 0x8e, 0x10, 0x44, 0xbf,
  0xb0, 0x46, 0x5e, 0x3f, 0xb4, 0x65, 0xaa, 0x3f, 0x70, 0x0b, 0x4e, 0xbe,
  0x5c, 0x6b, 0x9a, 0xbf, 0x35, 0x7f, 0x20, 0xbf, 0x0b, 0xa3, 0xae, 0x3d,
  0x0c, 0xd0, 0x64, 0xbd, 0x0c, 0x96, 0xec, 0x3e, 0xa8, 0xa1, 0x9f, 0xbd,
  0x6f, 0xdf, 0x88, 0x3e, 0x60, 0x63, 0x5b, 0xbd, 0x93, 0x4f, 0xc3, 0xbf,
  0x41, 0x59, 0x0a, 0xbe, 0x64, 0x6f, 0xfc, 0xbe, 0x34, 0xdf, 0xca, 0x3e,
  0x68, 0x26, 0xa4, 0xbe, 0xc0, 0x44, 0x59, 0xbd, 0x00, 0x00, 0xf3, 0x3a,
  0x50, 0x5a, 0x3b, 0xbe, 0xd0, 0x58, 0xbf, 0x3d, 0x78, 0xb0, 0x34, 0x3e,
  0x34, 0x1b, 0xbf, 0xbe, 0x60, 0x7d, 0x2b, 0xbd, 0xdc, 0xb7, 0x96, 0xbe,
  0x68, 0x5e, 0x6a, 0xbe, 0x38, 0xb9, 0x7f, 0x3e, 0x48, 0x34, 0x22, 0x3e,
  0xb0, 0x0c, 0x45, 0xbe, 0x40, 0x4d, 0x67, 0x3d, 0xef, 0xe6, 0x2b, 0x3e,
  0x4a, 0x72, 0xc2, 0xbe, 0x85, 0xc9, 0x9c, 0x3f, 0x96, 0x42, 0x99, 0x3d,
  0x45, 0xe0, 0x72, 0xbf, 0xa8, 0x41, 0x4d, 0x3e, 0x26, 0xc7, 0x69, 0xbf,
  0xa6, 0x0a, 0xb1, 0x3d, 0xae, 0x8f, 0x6a, 0x3e, 0x99, 0x50, 0x80, 0x3e,
  0x92, 0x73, 0xb2, 0xbe, 0xe6, 0x9e, 0xdd, 0xbe, 0xed, 0x47, 0x88, 0xbe,
  0x70, 0xe9, 0xaa, 0xbe, 0x44, 0x3a, 0xa2, 0xbf, 0x9c, 0xad, 0x10, 0xbe,
  0x90, 0xa8, 0xf3, 0xbd, 0xe0, 0x38, 0x08, 0x3d, 0x44, 0xa0, 0xa6, 0x3e,
  0xf0, 0x88, 0xce, 0xbd, 0x6c, 0x6d, 0x82, 0xbe, 0x9c, 0x1b, 0xdb, 0xbe,
  0x48, 0x4d, 0xeb, 0x3e, 0x40, 0x70, 0x34, 0x3e, 0xe0, 0x7f, 0xc1, 0xbd,
  0x2c, 0xb4, 0xcc, 0xbe, 0x2c, 0xa5, 0xb6, 0x3e, 0x88, 0x30, 0x09, 0xbe,
  0x78, 0xd6, 0xe3, 0xbe, 0x00, 0x10, 0x0a, 0xbc, 0xc0, 0x08, 0xd7, 0xbc,
  0xa8, 0x20, 0xa1, 0x3e, 0x78, 0x64, 0xed, 0xbe, 0xd8, 0x6b, 0x48, 0x3e,
  0x28, 0xbf, 0x20, 0xbe, 0x60, 0xf2, 0xb9, 0x3e, 0x20, 0xf0, 0x66, 0x3e,
  0x80, 0x40, 0xe2, 0x3d, 0x40, 0x82, 0x10, 0x3e, 0x08, 0x9d, 0x0f, 0x3e,
  0xa1, 0x04, 0x13, 0x3e, 0x20, 0xa2, 0x77, 0xbe, 0x0c, 0x94, 0x80, 0x3e,
  0xf9, 0x66, 0x0b, 0xbe, 0xb1, 0xd1, 0x3c, 0xbe, 0x90, 0x90, 0xb2, 0xbe,
  0xca, 0x98, 0xcf, 0x3f, 0xd7, 0xa0, 0xb8, 0xbe, 0x00, 0x00, 0x00, 0x00,
  0x96, 0xfe, 0xff, 0xff, 0x04, 0x00, 0x00, 0x00, 0x04, 0x00, 0x00, 0x00,
  0x83, 0xe7, 0x35, 0x3e, 0xa6, 0xfe, 0xff, 0xff, 0x04, 0x00, 0x00, 0x00,
  0x20, 0x00, 0x00, 0x00, 0xb1, 0xce, 0x5d, 0x3e, 0xcb, 0x63, 0x97, 0xbe,
  0xf3, 0xfc, 0xde, 0xbd, 0x00, 0x00, 0x00, 0x00, 0x26, 0xbe, 0xcf, 0xbd,
  0x56, 0xcb, 0x24, 0x3e, 0xa3, 0x99, 0xff, 0x3d, 0x00, 0x00, 0x00, 0x00,
  0x00, 0x00, 0x00, 0x00, 0xd6, 0xfe, 0xff, 0xff, 0x04, 0x00, 0x00, 0x00,
  0x80, 0x00, 0x00, 0x00, 0xc0, 0x10, 0xc6, 0xbc, 0x93, 0x90, 0xbc, 0x3a,
  0xde, 0xc9, 0xb2, 0x3d, 0xba, 0x15, 0x93, 0x3d, 0x5e, 0x44, 0x7c, 0xbd,
  0x98, 0xc0, 0x08, 0x3e, 0xdd, 0xd9, 0x47, 0xbd, 0x00, 0x00, 0x00, 0x00,
  0x38, 0x34, 0xbc, 0xbd, 0x5c, 0x55, 0x4c, 0xbb, 0xff, 0x31, 0x78, 0xbe,
  0x64, 0xfc, 0x3e, 0xbc, 0x6c, 0x8c, 0x62, 0x3e, 0xe3, 0x69, 0x4b, 0xbd,
  0xcc, 0x75, 0xd2, 0x3d, 0xa9, 0x09, 0xb3, 0xbb, 0x95, 0x18, 0x60, 0xbc,
  0xf4, 0x9f, 0xad, 0xbd, 0xfd, 0xc7, 0x0e, 0xbe, 0x2d, 0x07, 0xa1, 0x3d,
  0xbb, 0x50, 0xe1, 0x3e, 0x43, 0xa2, 0xe9, 0x3d, 0x00, 0x00, 0x00, 0x00,
  0x00, 0x00, 0x00, 0x00, 0x36, 0x3e, 0x4f, 0xbb, 0x35, 0x23, 0xb7, 0x3d,
  0x23, 0x44, 0xd3, 0xbc, 0x49, 0xc6, 0x43, 0xbe, 0xbd, 0xae, 0x81, 0x3e,
  0xcc, 0x74, 0x0d, 0xbe, 0x5e, 0xd7, 0xdf, 0x3d, 0x99, 0xee, 0xd5, 0xbd,
  0x00, 0x00, 0x00, 0x00, 0x66, 0xff, 0xff, 0xff, 0x04, 0x00, 0x00, 0x00,
  0x80, 0x00, 0x00, 0x00, 0xa1, 0x36, 0x1c, 0xbe, 0x88, 0x90, 0x19, 0xbd,
  0x96, 0xc2, 0x19, 0xbd, 0x84, 0x4f, 0x12, 0xbe, 0x6a, 0xd0, 0x0a, 0x3d,
  0x00, 0x00, 0x00, 0x00, 0x1e, 0x41, 0x5d, 0xbd, 0x50, 0xed, 0x99, 0xbd,
  0x00, 0x00, 0x00, 0x00, 0x46, 0x94, 0x48, 0xbd, 0x25, 0x4b, 0xa3, 0xbd,
  0x00, 0x00, 0x00, 0x00, 0x08, 0xff, 0x1b, 0xbc, 0x09, 0xa6, 0x0a, 0x3e,
  0x38, 0x60, 0x18, 0xbb, 0x25, 0x4f, 0x04, 0xbd, 0x2b, 0x35, 0x72, 0x3c,
  0x0a, 0x95, 0x02, 0xbd, 0x0f, 0x53, 0x8e, 0xbd, 0x00, 0x00, 0x00, 0x00,
  0xe7, 0xe8, 0x61, 0xbd, 0x00, 0x00, 0x00, 0x00, 0x68, 0x43, 0xf6, 0x3b,
  0x00, 0x00, 0x00, 0x00, 0x00, 0x00, 0x00, 0x00, 0x1e, 0x5a, 0x34, 0xbc,
  0x54, 0xfa, 0x99, 0xbd, 0x00, 0x00, 0x00, 0x00, 0xde, 0xc2, 0x9b, 0xbd,
  0x00, 0x00, 0x00, 0x00, 0x00, 0x00, 0x00, 0x00, 0x6d, 0xf7, 0xa4, 0xbd,
  0x00, 0x00, 0x00, 0x00, 0x00, 0x00, 0x00, 0x00, 0x00, 0x00, 0x00, 0x00,
  0x00, 0x00, 0x06, 0x00, 0x08, 0x00, 0x04, 0x00, 0x06, 0x00, 0x00, 0x00,
  0x04, 0x00, 0x00, 0x00, 0x40, 0x00, 0x00, 0x00, 0x00, 0x00, 0x00, 0x00,
  0x00, 0x00, 0x00, 0x00, 0x00, 0x00, 0x00, 0x00, 0x12, 0x6b, 0x02, 0xbe,
  0x00, 0x0e, 0xbc, 0xbc, 0x00, 0x00, 0x00, 0x00, 0x40, 0xd1, 0xbd, 0xbe,
  0x5f, 0x69, 0x8f, 0xbd, 0x00, 0x00, 0x00, 0x00, 0x00, 0x00, 0x00, 0x00,
  0x5f, 0x15, 0xa8, 0xbd, 0xee, 0x7c, 0xdb, 0xbc, 0x00, 0x00, 0x00, 0x00,
  0x00, 0x00, 0x00, 0x00, 0x00, 0x00, 0x00, 0x00, 0xb7, 0x76, 0x71, 0xbd,
  0x00, 0x00, 0x00, 0x00, 0x00, 0x00, 0x00, 0x00, 0x00, 0x00, 0x00, 0x00,
  0xc4, 0xf8, 0xff, 0xff, 0x00, 0x00, 0x00, 0x00, 0x00, 0x00, 0x00, 0x00,
  0x00, 0x00, 0x00, 0x00, 0xd4, 0xf8, 0xff, 0xff, 0x00, 0x00, 0x00, 0x00,
  0x0f, 0x00, 0x00, 0x00, 0x4d, 0x4c, 0x49, 0x52, 0x20, 0x43, 0x6f, 0x6e,
  0x76, 0x65, 0x72, 0x74, 0x65, 0x64, 0x2e, 0x00, 0x01, 0x00, 0x00, 0x00,
  0x14, 0x00, 0x00, 0x00, 0x00, 0x00, 0x0e, 0x00, 0x18, 0x00, 0x04, 0x00,
  0x08, 0x00, 0x0c, 0x00, 0x10, 0x00, 0x14, 0x00, 0x0e, 0x00, 0x00, 0x00,
  0x70, 0x01, 0x00, 0x00, 0x64, 0x01, 0x00, 0x00, 0x58, 0x01, 0x00, 0x00,
  0x14, 0x00, 0x00, 0x00, 0x04, 0x00, 0x00, 0x00, 0x04, 0x00, 0x00, 0x00,
  0x6d, 0x61, 0x69, 0x6e, 0x00, 0x00, 0x00, 0x00, 0x05, 0x00, 0x00, 0x00,
  0x00, 0x01, 0x00, 0x00, 0xb8, 0x00, 0x00, 0x00, 0x70, 0x00, 0x00, 0x00,
  0x38, 0x00, 0x00, 0x00, 0x04, 0x00, 0x00, 0x00, 0x66, 0xff, 0xff, 0xff,
  0x00, 0x00, 0x00, 0x08, 0x18, 0x00, 0x00, 0x00, 0x0c, 0x00, 0x00, 0x00,
  0x04, 0x00, 0x00, 0x00, 0x58, 0xf9, 0xff, 0xff, 0x01, 0x00, 0x00, 0x00,
  0x0f, 0x00, 0x00, 0x00, 0x03, 0x00, 0x00, 0x00, 0x0e, 0x00, 0x00, 0x00,
  0x0a, 0x00, 0x00, 0x00, 0x05, 0x00, 0x00, 0x00, 0x96, 0xff, 0xff, 0xff,
  0x00, 0x00, 0x00, 0x08, 0x1c, 0x00, 0x00, 0x00, 0x10, 0x00, 0x00, 0x00,
  0x04, 0x00, 0x00, 0x00, 0x42, 0xff, 0xff, 0xff, 0x00, 0x00, 0x00, 0x01,
  0x01, 0x00, 0x00, 0x00, 0x0e, 0x00, 0x00, 0x00, 0x03, 0x00, 0x00, 0x00,
  0x0d, 0x00, 0x00, 0x00, 0x09, 0x00, 0x00, 0x00, 0x04, 0x00, 0x00, 0x00,
  0xca, 0xff, 0xff, 0xff, 0x00, 0x00, 0x00, 0x08, 0x1c, 0x00, 0x00, 0x00,
  0x10, 0x00, 0x00, 0x00, 0x04, 0x00, 0x00, 0x00, 0x76, 0xff, 0xff, 0xff,
  0x00, 0x00, 0x00, 0x01, 0x01, 0x00, 0x00, 0x00, 0x0d, 0x00, 0x00, 0x00,
  0x03, 0x00, 0x00, 0x00, 0x0c, 0x00, 0x00, 0x00, 0x08, 0x00, 0x00, 0x00,
  0x03, 0x00, 0x00, 0x00, 0x00, 0x00, 0x0e, 0x00, 0x14, 0x00, 0x00, 0x00,
  0x08, 0x00, 0x0c, 0x00, 0x07, 0x00, 0x10, 0x00, 0x0e, 0x00, 0x00, 0x00,
  0x00, 0x00, 0x00, 0x08, 0x1c, 0x00, 0x00, 0x00, 0x10, 0x00, 0x00, 0x00,
  0x04, 0x00, 0x00, 0x00, 0xba, 0xff, 0xff, 0xff, 0x00, 0x00, 0x00, 0x01,
  0x01, 0x00, 0x00, 0x00, 0x0c, 0x00, 0x00, 0x00, 0x03, 0x00, 0x00, 0x00,
  0x0b, 0x00, 0x00, 0x00, 0x07, 0x00, 0x00, 0x00, 0x02, 0x00, 0x00, 0x00,
  0x00, 0x00, 0x0e, 0x00, 0x16, 0x00, 0x00, 0x00, 0x08, 0x00, 0x0c, 0x00,
  0x07, 0x00, 0x10, 0x00, 0x0e, 0x00, 0x00, 0x00, 0x00, 0x00, 0x00, 0x08,
  0x24, 0x00, 0x00, 0x00, 0x18, 0x00, 0x00, 0x00, 0x0c, 0x00, 0x00, 0x00,
  0x00, 0x00, 0x06, 0x00, 0x08, 0x00, 0x07, 0x00, 0x06, 0x00, 0x00, 0x00,
  0x00, 0x00, 0x00, 0x01, 0x01, 0x00, 0x00, 0x00, 0x0b, 0x00, 0x00, 0x00,
  0x03, 0x00, 0x00, 0x00, 0x00, 0x00, 0x00, 0x00, 0x06, 0x00, 0x00, 0x00,
  0x01, 0x00, 0x00, 0x00, 0x01, 0x00, 0x00, 0x00, 0x0f, 0x00, 0x00, 0x00,
  0x01, 0x00, 0x00, 0x00, 0x00, 0x00, 0x00, 0x00, 0x10, 0x00, 0x00, 0x00,
  0x6c, 0x05, 0x00, 0x00, 0x04, 0x05, 0x00, 0x00, 0xac, 0x04, 0x00, 0x00,
  0x54, 0x04, 0x00, 0x00, 0xfc, 0x03, 0x00, 0x00, 0xa4, 0x03, 0x00, 0x00,
  0x58, 0x03, 0x00, 0x00, 0x0c, 0x03, 0x00, 0x00, 0x94, 0x02, 0x00, 0x00,
  0x38, 0x02, 0x00, 0x00, 0xec, 0x01, 0x00, 0x00, 0x80, 0x01, 0x00, 0x00,
  0x14, 0x01, 0x00, 0x00, 0xa8, 0x00, 0x00, 0x00, 0x3c, 0x00, 0x00, 0x00,
  0x04, 0x00, 0x00, 0x00, 0xe2, 0xfa, 0xff, 0xff, 0x24, 0x00, 0x00, 0x00,
  0x10, 0x00, 0x00, 0x00, 0x0c, 0x00, 0x00, 0x00, 0x04, 0x00, 0x00, 0x00,
  0xd4, 0xfa, 0xff, 0xff, 0x08, 0x00, 0x00, 0x00, 0x49, 0x64, 0x65, 0x6e,
  0x74, 0x69, 0x74, 0x79, 0x00, 0x00, 0x00, 0x00, 0x02, 0x00, 0x00, 0x00,
  0x01, 0x00, 0x00, 0x00, 0x01, 0x00, 0x00, 0x00, 0x16, 0xfb, 0xff, 0xff,
  0x58, 0x00, 0x00, 0x00, 0x0f, 0x00, 0x00, 0x00, 0x0c, 0x00, 0x00, 0x00,
  0x04, 0x00, 0x00, 0x00, 0x08, 0xfb, 0xff, 0xff, 0x3c, 0x00, 0x00, 0x00,
  0x73, 0x65, 0x71, 0x75, 0x65, 0x6e, 0x74, 0x69, 0x61, 0x6c, 0x5f, 0x32,
  0x36, 0x2f, 0x64, 0x65, 0x6e, 0x73, 0x65, 0x5f, 0x31, 0x30, 0x36, 0x2f,
  0x52, 0x65, 0x6c, 0x75, 0x3b, 0x73, 0x65, 0x71, 0x75, 0x65, 0x6e, 0x74,
  0x69, 0x61, 0x6c, 0x5f, 0x32, 0x36, 0x2f, 0x64, 0x65, 0x6e, 0x73, 0x65,
  0x5f, 0x31, 0x30, 0x36, 0x2f, 0x42, 0x69, 0x61, 0x73, 0x41, 0x64, 0x64,
  0x00, 0x00, 0x00, 0x00, 0x02, 0x00, 0x00, 0x00, 0x01, 0x00, 0x00, 0x00,
  0x08, 0x00, 0x00, 0x00, 0x7e, 0xfb, 0xff, 0xff, 0x58, 0x00, 0x00, 0x00,
  0x0e, 0x00, 0x00, 0x00, 0x0c, 0x00, 0x00, 0x00, 0x04, 0x00, 0x00, 0x00,
  0x70, 0xfb, 0xff, 0xff, 0x3c, 0x00, 0x00, 0x00, 0x73, 0x65, 0x71, 0x75,
  0x65, 0x6e, 0x74, 0x69, 0x61, 0x6c, 0x5f, 0x32, 0x36, 0x2f, 0x64, 0x65,
  0x6e, 0x73, 0x65, 0x5f, 0x31, 0x30, 0x35, 0x2f, 0x52, 0x65, 0x6c, 0x75,
  0x3b, 0x73, 0x65, 0x71, 0x75, 0x65, 0x6e, 0x74, 0x69, 0x61, 0x6c, 0x5f,
  0x32, 0x36, 0x2f, 0x64, 0x65, 0x6e, 0x73, 0x65, 0x5f, 0x31, 0x30, 0x35,
  0x2f, 0x42, 0x69, 0x61, 0x73, 0x41, 0x64, 0x64, 0x00, 0x00, 0x00, 0x00,
  0x02, 0x00, 0x00, 0x00, 0x01, 0x00, 0x00, 0x00, 0x20, 0x00, 0x00, 0x00,
  0xe6, 0xfb, 0xff, 0xff, 0x58, 0x00, 0x00, 0x00, 0x0d, 0x00, 0x00, 0x00,
  0x0c, 0x00, 0x00, 0x00, 0x04, 0x00, 0x00, 0x00, 0xd8, 0xfb, 0xff, 0xff,
  0x3c, 0x00, 0x00, 0x00, 0x73, 0x65, 0x71, 0x75, 0x65, 0x6e, 0x74, 0x69,
  0x61, 0x6c, 0x5f, 0x32, 0x36, 0x2f, 0x64, 0x65, 0x6e, 0x73, 0x65, 0x5f,
  0x31, 0x30, 0x34, 0x2f, 0x52, 0x65, 0x6c, 0x75, 0x3b, 0x73, 0x65, 0x71,
  0x75, 0x65, 0x6e, 0x74, 0x69, 0x61, 0x6c, 0x5f, 0x32, 0x36, 0x2f, 0x64,
  0x65, 0x6e, 0x73, 0x65, 0x5f, 0x31, 0x30, 0x34, 0x2f, 0x42, 0x69, 0x61,
  0x73, 0x41, 0x64, 0x64, 0x00, 0x00, 0x00, 0x00, 0x02, 0x00, 0x00, 0x00,
  0x01, 0x00, 0x00, 0x00, 0x20, 0x00, 0x00, 0x00, 0x4e, 0xfc, 0xff, 0xff,
  0x58, 0x00, 0x00, 0x00, 0x0c, 0x00, 0x00, 0x00, 0x0c, 0x00, 0x00, 0x00,
  0x04, 0x00, 0x00, 0x00, 0x40, 0xfc, 0xff, 0xff, 0x3c, 0x00, 0x00, 0x00,
  0x73, 0x65, 0x71, 0x75, 0x65, 0x6e, 0x74, 0x69, 0x61, 0x6c, 0x5f, 0x32,
  0x36, 0x2f, 0x64, 0x65, 0x6e, 0x73, 0x65, 0x5f, 0x31, 0x30, 0x33, 0x2f,
  0x52, 0x65, 0x6c, 0x75, 0x3b, 0x73, 0x65, 0x71, 0x75, 0x65, 0x6e, 0x74,
  0x69, 0x61, 0x6c, 0x5f, 0x32, 0x36, 0x2f, 0x64, 0x65, 0x6e, 0x73, 0x65,
  0x5f, 0x31, 0x30, 0x33, 0x2f, 0x42, 0x69, 0x61, 0x73, 0x41, 0x64, 0x64,
  0x00, 0x00, 0x00, 0x00, 0x02, 0x00, 0x00, 0x00, 0x01, 0x00, 0x00, 0x00,
  0x10, 0x00, 0x00, 0x00, 0xb6, 0xfc, 0xff, 0xff, 0x38, 0x00, 0x00, 0x00,
  0x0b, 0x00, 0x00, 0x00, 0x0c, 0x00, 0x00, 0x00, 0x04, 0x00, 0x00, 0x00,
  0xa8, 0xfc, 0xff, 0xff, 0x1e, 0x00, 0x00, 0x00, 0x73, 0x65, 0x71, 0x75,
  0x65, 0x6e, 0x74, 0x69, 0x61, 0x6c, 0x5f, 0x32, 0x36, 0x2f, 0x64, 0x65,
  0x6e, 0x73, 0x65, 0x5f, 0x31, 0x30, 0x37, 0x2f, 0x4d, 0x61, 0x74, 0x4d,
  0x75, 0x6c, 0x00, 0x00, 0x02, 0x00, 0x00, 0x00, 0x01, 0x00, 0x00, 0x00,
  0x08, 0x00, 0x00, 0x00, 0xfe, 0xfc, 0xff, 0xff, 0x38, 0x00, 0x00, 0x00,
  0x0a, 0x00, 0x00, 0x00, 0x0c, 0x00, 0x00, 0x00, 0x04, 0x00, 0x00, 0x00,
  0xf0, 0xfc, 0xff, 0xff, 0x1e, 0x00, 0x00, 0x00, 0x73, 0x65, 0x71, 0x75,
  0x65, 0x6e, 0x74, 0x69, 0x61, 0x6c, 0x5f, 0x32, 0x36, 0x2f, 0x64, 0x65,
  0x6e, 0x73, 0x65, 0x5f, 0x31, 0x30, 0x36, 0x2f, 0x4d, 0x61, 0x74, 0x4d,
  0x75, 0x6c, 0x00, 0x00, 0x02, 0x00, 0x00, 0x00, 0x08, 0x00, 0x00, 0x00,
  0x20, 0x00, 0x00, 0x00, 0x00, 0x00, 0x0e, 0x00, 0x18, 0x00, 0x08, 0x00,
  0x07, 0x00, 0x0c, 0x00, 0x10, 0x00, 0x14, 0x00, 0x0e, 0x00, 0x00, 0x00,
  0x00, 0x00, 0x00, 0x09, 0x60, 0x00, 0x00, 0x00, 0x09, 0x00, 0x00, 0x00,
  0x34, 0x00, 0x00, 0x00, 0x10, 0x00, 0x00, 0x00, 0x0c, 0x00, 0x0c, 0x00,
  0x00, 0x00, 0x00, 0x00, 0x04, 0x00, 0x08, 0x00, 0x0c, 0x00, 0x00, 0x00,
  0x14, 0x00, 0x00, 0x00, 0x04, 0x00, 0x00, 0x00, 0x01, 0x00, 0x00, 0x00,
  0x00, 0x00, 0x00, 0x00, 0x00, 0x00, 0x00, 0x00, 0x01, 0x00, 0x00, 0x00,
  0x85, 0x4f, 0xa1, 0x3c, 0x1e, 0x00, 0x00, 0x00, 0x73, 0x65, 0x71, 0x75,
  0x65, 0x6e, 0x74, 0x69, 0x61, 0x6c, 0x5f, 0x32, 0x36, 0x2f, 0x64, 0x65,
  0x6e, 0x73, 0x65, 0x5f, 0x31, 0x30, 0x35, 0x2f, 0x4d, 0x61, 0x74, 0x4d,
  0x75, 0x6c, 0x00, 0x00, 0x02, 0x00, 0x00, 0x00, 0x20, 0x00, 0x00, 0x00,
  0x20, 0x00, 0x00, 0x00, 0xca, 0xfd, 0xff, 0xff, 0x38, 0x00, 0x00, 0x00,
  0x08, 0x00, 0x00, 0x00, 0x0c, 0x00, 0x00, 0x00, 0x04, 0x00, 0x00, 0x00,
  0xbc, 0xfd, 0xff, 0xff, 0x1e, 0x00, 0x00, 0x00, 0x73, 0x65, 0x71, 0x75,
  0x65, 0x6e, 0x74, 0x69, 0x61, 0x6c, 0x5f, 0x32, 0x36, 0x2f, 0x64, 0x65,
  0x6e, 0x73, 0x65, 0x5f, 0x31, 0x30, 0x34, 0x2f, 0x4d, 0x61, 0x74, 0x4d,
  0x75, 0x6c, 0x00, 0x00, 0x02, 0x00, 0x00, 0x00, 0x20, 0x00, 0x00, 0x00,
  0x10, 0x00, 0x00, 0x00, 0x12, 0xfe, 0xff, 0xff, 0x38, 0x00, 0x00, 0x00,
  0x07, 0x00, 0x00, 0x00, 0x0c, 0x00, 0x00, 0x00, 0x04, 0x00, 0x00, 0x00,
  0x04, 0xfe, 0xff, 0xff, 0x1e, 0x00, 0x00, 0x00, 0x73, 0x65, 0x71, 0x75,
  0x65, 0x6e, 0x74, 0x69, 0x61, 0x6c, 0x5f, 0x32, 0x36, 0x2f, 0x64, 0x65,
  0x6e, 0x73, 0x65, 0x5f, 0x31, 0x30, 0x33, 0x2f, 0x4d, 0x61, 0x74, 0x4d,
  0x75, 0x6c, 0x00, 0x00, 0x02, 0x00, 0x00, 0x00, 0x10, 0x00, 0x00, 0x00,
  0x08, 0x00, 0x00, 0x00, 0x5a, 0xfe, 0xff, 0xff, 0x48, 0x00, 0x00, 0x00,
  0x06, 0x00, 0x00, 0x00, 0x0c, 0x00, 0x00, 0x00, 0x04, 0x00, 0x00, 0x00,
  0x4c, 0xfe, 0xff, 0xff, 0x2e, 0x00, 0x00, 0x00, 0x73, 0x65, 0x71, 0x75,
  0x65, 0x6e, 0x74, 0x69, 0x61, 0x6c, 0x5f, 0x32, 0x36, 0x2f, 0x64, 0x65,
  0x6e, 0x73, 0x65, 0x5f, 0x31, 0x30, 0x37, 0x2f, 0x42, 0x69, 0x61, 0x73,
  0x41, 0x64, 0x64, 0x2f, 0x52, 0x65, 0x61, 0x64, 0x56, 0x61, 0x72, 0x69,
  0x61, 0x62, 0x6c, 0x65, 0x4f, 0x70, 0x00, 0x00, 0x01, 0x00, 0x00, 0x00,
  0x01, 0x00, 0x00, 0x00, 0xae, 0xfe, 0xff, 0xff, 0x48, 0x00, 0x00, 0x00,
  0x05, 0x00, 0x00, 0x00, 0x0c, 0x00, 0x00, 0x00, 0x04, 0x00, 0x00, 0x00,
  0xa0, 0xfe, 0xff, 0xff, 0x2e, 0x00, 0x00, 0x00, 0x73, 0x65, 0x71, 0x75,
  0x65, 0x6e, 0x74, 0x69, 0x61, 0x6c, 0x5f, 0x32, 0x36, 0x2f, 0x64, 0x65,
  0x6e, 0x73, 0x65, 0x5f, 0x31, 0x30, 0x36, 0x2f, 0x42, 0x69, 0x61, 0x73,
  0x41, 0x64, 0x64, 0x2f, 0x52, 0x65, 0x61, 0x64, 0x56, 0x61, 0x72, 0x69,
  0x61, 0x62, 0x6c, 0x65, 0x4f, 0x70, 0x00, 0x00, 0x01, 0x00, 0x00, 0x00,
  0x08, 0x00, 0x00, 0x00, 0x02, 0xff, 0xff, 0xff, 0x48, 0x00, 0x00, 0x00,
  0x04, 0x00, 0x00, 0x00, 0x0c, 0x00, 0x00, 0x00, 0x04, 0x00, 0x00, 0x00,
  0xf4, 0xfe, 0xff, 0xff, 0x2e, 0x00, 0x00, 0x00, 0x73, 0x65, 0x71, 0x75,
  0x65, 0x6e, 0x74, 0x69, 0x61, 0x6c, 0x5f, 0x32, 0x36, 0x2f, 0x64, 0x65,
  0x6e, 0x73, 0x65, 0x5f, 0x31, 0x30, 0x35, 0x2f, 0x42, 0x69, 0x61, 0x73,
  0x41, 0x64, 0x64, 0x2f, 0x52, 0x65, 0x61, 0x64, 0x56, 0x61, 0x72, 0x69,
  0x61, 0x62, 0x6c, 0x65, 0x4f, 0x70, 0x00, 0x00, 0x01, 0x00, 0x00, 0x00,
  0x20, 0x00, 0x00, 0x00, 0x56, 0xff, 0xff, 0xff, 0x48, 0x00, 0x00, 0x00,
  0x03, 0x00, 0x00, 0x00, 0x0c, 0x00, 0x00, 0x00, 0x04, 0x00, 0x00, 0x00,
  0x48, 0xff, 0xff, 0xff, 0x2e, 0x00, 0x00, 0x00, 0x73, 0x65, 0x71, 0x75,
  0x65, 0x6e, 0x74, 0x69, 0x61, 0x6c, 0x5f, 0x32, 0x36, 0x2f, 0x64, 0x65,
  0x6e, 0x73, 0x65, 0x5f, 0x31, 0x30, 0x34, 0x2f, 0x42, 0x69, 0x61, 0x73,
  0x41, 0x64, 0x64, 0x2f, 0x52, 0x65, 0x61, 0x64, 0x56, 0x61, 0x72, 0x69,
  0x61, 0x62, 0x6c, 0x65, 0x4f, 0x70, 0x00, 0x00, 0x01, 0x00, 0x00, 0x00,
  0x20, 0x00, 0x00, 0x00, 0xaa, 0xff, 0xff, 0xff, 0x48, 0x00, 0x00, 0x00,
  0x02, 0x00, 0x00, 0x00, 0x0c, 0x00, 0x00, 0x00, 0x04, 0x00, 0x00, 0x00,
  0x9c, 0xff, 0xff, 0xff, 0x2e, 0x00, 0x00, 0x00, 0x73, 0x65, 0x71, 0x75,
  0x65, 0x6e, 0x74, 0x69, 0x61, 0x6c, 0x5f, 0x32, 0x36, 0x2f, 0x64, 0x65,
  0x6e, 0x73, 0x65, 0x5f, 0x31, 0x30, 0x33, 0x2f, 0x42, 0x69, 0x61, 0x73,
  0x41, 0x64, 0x64, 0x2f, 0x52, 0x65, 0x61, 0x64, 0x56, 0x61, 0x72, 0x69,
  0x61, 0x62, 0x6c, 0x65, 0x4f, 0x70, 0x00, 0x00, 0x01, 0x00, 0x00, 0x00,
  0x10, 0x00, 0x00, 0x00, 0x00, 0x00, 0x0e, 0x00, 0x14, 0x00, 0x04, 0x00,
  0x00, 0x00, 0x08, 0x00, 0x0c, 0x00, 0x10, 0x00, 0x0e, 0x00, 0x00, 0x00,
  0x2c, 0x00, 0x00, 0x00, 0x01, 0x00, 0x00, 0x00, 0x10, 0x00, 0x00, 0x00,
  0x08, 0x00, 0x00, 0x00, 0x04, 0x00, 0x04, 0x00, 0x04, 0x00, 0x00, 0x00,
  0x0f, 0x00, 0x00, 0x00, 0x64, 0x65, 0x6e, 0x73, 0x65, 0x5f, 0x31, 0x30,
  0x33, 0x5f, 0x69, 0x6e, 0x70, 0x75, 0x74, 0x00, 0x02, 0x00, 0x00, 0x00,
  0x01, 0x00, 0x00, 0x00, 0x08, 0x00, 0x00, 0x00, 0x01, 0x00, 0x00, 0x00,
  0x10, 0x00, 0x00, 0x00, 0x00, 0x00, 0x0a, 0x00, 0x0c, 0x00, 0x07, 0x00,
  0x00, 0x00, 0x08, 0x00, 0x0a, 0x00, 0x00, 0x00, 0x00, 0x00, 0x00, 0x09,
  0x03, 0x00, 0x00, 0x00
};
unsigned int humidity_predictor_tflite_len = 7408;
