unsigned char temperature_predictor_tflite[] = {
  0x28, 0x00, 0x00, 0x00, 0x54, 0x46, 0x4c, 0x33, 0x00, 0x00, 0x00, 0x00,
  0x00, 0x00, 0x00, 0x00, 0x00, 0x00, 0x00, 0x00, 0x00, 0x00, 0x12, 0x00,
  0x1c, 0x00, 0x04, 0x00, 0x08, 0x00, 0x0c, 0x00, 0x10, 0x00, 0x14, 0x00,
  0x00, 0x00, 0x18, 0x00, 0x12, 0x00, 0x00, 0x00, 0x03, 0x00, 0x00, 0x00,
  0x90, 0x1c, 0x00, 0x00, 0x64, 0x15, 0x00, 0x00, 0x4c, 0x15, 0x00, 0x00,
  0x3c, 0x00, 0x00, 0x00, 0x04, 0x00, 0x00, 0x00, 0x01, 0x00, 0x00, 0x00,
  0x0c, 0x00, 0x00, 0x00, 0x08, 0x00, 0x0c, 0x00, 0x04, 0x00, 0x08, 0x00,
  0x08, 0x00, 0x00, 0x00, 0x08, 0x00, 0x00, 0x00, 0x11, 0x00, 0x00, 0x00,
  0x13, 0x00, 0x00, 0x00, 0x6d, 0x69, 0x6e, 0x5f, 0x72, 0x75, 0x6e, 0x74,
  0x69, 0x6d, 0x65, 0x5f, 0x76, 0x65, 0x72, 0x73, 0x69, 0x6f, 0x6e, 0x00,
  0x12, 0x00, 0x00, 0x00, 0x00, 0x15, 0x00, 0x00, 0xec, 0x14, 0x00, 0x00,
  0x90, 0x14, 0x00, 0x00, 0xec, 0x13, 0x00, 0x00, 0x58, 0x13, 0x00, 0x00,
  0x24, 0x13, 0x00, 0x00, 0x10, 0x13, 0x00, 0x00, 0xfc, 0x10, 0x00, 0x00,
  0xe8, 0x08, 0x00, 0x00, 0xd4, 0x04, 0x00, 0x00, 0xc0, 0x00, 0x00, 0x00,
  0x8c, 0x00, 0x00, 0x00, 0x80, 0x00, 0x00, 0x00, 0x6c, 0x00, 0x00, 0x00,
  0x58, 0x00, 0x00, 0x00, 0x44, 0x00, 0x00, 0x00, 0x30, 0x00, 0x00, 0x00,
  0x04, 0x00, 0x00, 0x00, 0xb6, 0xeb, 0xff, 0xff, 0x04, 0x00, 0x00, 0x00,
  0x10, 0x00, 0x00, 0x00, 0x31, 0x2e, 0x35, 0x2e, 0x30, 0x00, 0x00, 0x00,
  0x00, 0x00, 0x00, 0x00, 0x00, 0x00, 0x00, 0x00, 0x00, 0x00, 0x00, 0x00,
  0x00, 0x00, 0x00, 0x00, 0x00, 0x00, 0x00, 0x00, 0x54, 0xe4, 0xff, 0xff,
  0x00, 0x00, 0x00, 0x00, 0x00, 0x00, 0x00, 0x00, 0x00, 0x00, 0x00, 0x00,
  0x64, 0xe4, 0xff, 0xff, 0x00, 0x00, 0x00, 0x00, 0x00, 0x00, 0x00, 0x00,
  0x00, 0x00, 0x00, 0x00, 0x74, 0xe4, 0xff, 0xff, 0x00, 0x00, 0x00, 0x00,
  0x00, 0x00, 0x00, 0x00, 0x00, 0x00, 0x00, 0x00, 0x84, 0xe4, 0xff, 0xff,
  0x00, 0x00, 0x00, 0x00, 0x00, 0x00, 0x00, 0x00, 0x00, 0x00, 0x00, 0x00,
  0x94, 0xe4, 0xff, 0xff, 0x00, 0x00, 0x00, 0x00, 0x26, 0xec, 0xff, 0xff,
  0x04, 0x00, 0x00, 0x00, 0x20, 0x00, 0x00, 0x00, 0x8c, 0x94, 0x2a, 0x3d,
  0xa5, 0x5a, 0x02, 0xbf, 0x06, 0xe6, 0x9e, 0x3e, 0xd4, 0xf2, 0x52, 0xbe,
  0x68, 0xce, 0x6d, 0xbe, 0xc4, 0x32, 0x10, 0x3f, 0xbc, 0xe9, 0x96, 0x3e,
  0x6e, 0xf1, 0x32, 0xbf, 0x00, 0x00, 0x00, 0x00, 0x56, 0xec, 0xff, 0xff,
  0x04, 0x00, 0x00, 0x00, 0x00, 0x04, 0x00, 0x00, 0x58, 0x42, 0xae, 0x3e,
  0xca, 0x22, 0xf5, 0x3d, 0xd1, 0x8b, 0xe9, 0xbe, 0xe8, 0xc1, 0xcd, 0x3b,
  0x3c, 0x8b, 0xa4, 0xbe, 0xb9, 0xe8, 0x56, 0xbe, 0x97, 0xf1, 0xc4, 0x3d,
  0x1e, 0xec, 0xb1, 0x3b, 0x59, 0x79, 0x54, 0xbd, 0x6f, 0x3d, 0x6c, 0xbe,
  0x16, 0x55, 0x3f, 0xbd, 0x56, 0xe1, 0xbb, 0xbe, 0x87, 0x69, 0xb7, 0x3e,
  0x8d, 0x04, 0x42, 0x3e, 0x22, 0x2f, 0x0d, 0x3d, 0x9f, 0x84, 0x2a, 0xbd,
  0xfb, 0xd4, 0xae, 0xbe, 0xff, 0x6a, 0xc7, 0xbe, 0x36, 0x3a, 0x99, 0xbe,
  0xb4, 0x7b, 0x23, 0x3e, 0x30, 0x35, 0x7a, 0x3e, 0xa2, 0x79, 0xbb, 0x3e,
  0x0c, 0x1d, 0x60, 0xbe, 0xc0, 0xc7, 0x12, 0x3e, 0x54, 0x9a, 0x89, 0xbd,
  0x78, 0x41, 0x14, 0x3e, 0xbc, 0x86, 0x9b, 0x3d, 0xec, 0x2b, 0xf4, 0xbd,
  0x68, 0x0a, 0x57, 0x3d, 0xd9, 0x7a, 0xa4, 0x3e, 0xc0, 0x0c, 0xe7, 0x3d,
  0xdd, 0xea, 0x8f, 0x3d, 0x4a, 0x1c, 0xae, 0x3e, 0x75, 0xfd, 0xc5, 0xbd,
  0x0c, 0xc6, 0x91, 0x3c, 0x31, 0x3b, 0xeb, 0xbd, 0x6a, 0x61, 0x86, 0x3e,
  0xb8, 0x04, 0xa3, 0x3e, 0x84, 0x33, 0x37, 0xbd, 0xad, 0xb2, 0xac, 0x3e,
  0xda, 0x40, 0xb6, 0x3e, 0x4d, 0x6c, 0xad, 0xbe, 0xe0, 0x79, 0x21, 0xbe,
  0x4d, 0x03, 0x2c, 0x3d, 0x1f, 0x45, 0x4c, 0xbe, 0x36, 0x2c, 0xb4, 0xbe,
  0x4f, 0xaa, 0xa4, 0xbe, 0x12, 0x3b, 0x4a, 0xbd, 0x3b, 0x64, 0x93, 0x3e,
  0x6c, 0x9a, 0xee, 0xbc, 0x91, 0x89, 0x5f, 0xbe, 0xb7, 0x36, 0x8f, 0xbc,
  0xd0, 0xf0, 0x51, 0x3e, 0xf6, 0x23, 0x8a, 0x3e, 0xb5, 0xb7, 0xb4, 0xbe,
  0x3b, 0x7c, 0xb5, 0xbd, 0x80, 0x03, 0x6d, 0xbb, 0xf2, 0xed, 0xba, 0x3e,
  0x98, 0x86, 0x7a, 0xbe, 0x90, 0x52, 0x30, 0x3e, 0x94, 0x50, 0x05, 0x3e,
  0x32, 0x24, 0xa6, 0xbd, 0xd8, 0x2b, 0x3a, 0x3e, 0xfe, 0x00, 0x85, 0x3e,
  0xf3, 0xeb, 0x34, 0x3d, 0x52, 0x9f, 0x5f, 0x3e, 0xd3, 0x55, 0xa7, 0x3e,
  0x1e, 0xf3, 0x8e, 0xbe, 0xe8, 0x1a, 0x5c, 0x3e, 0x18, 0x15, 0x0a, 0xbd,
  0x44, 0x8e, 0xbf, 0x3e, 0xd0, 0x81, 0x01, 0x3e, 0xc1, 0x56, 0x5c, 0x3e,
  0xf2, 0xa3, 0x9d, 0xbe, 0x88, 0x48, 0x81, 0x3e, 0x73, 0x22, 0xc5, 0x3d,
  0xd2, 0xc2, 0x0e, 0x3e, 0x30, 0xca, 0xcb, 0x3e, 0x52, 0xad, 0xab, 0x3d,
  0xbf, 0x0b, 0x06, 0x3e, 0xc5, 0x7b, 0x3e, 0xbc, 0xa4, 0x33, 0xb3, 0x3e,
  0x9f, 0xe6, 0xc2, 0x3e, 0x69, 0xc8, 0x8c, 0xbe, 0xa1, 0x95, 0x57, 0x3b,
  0x18, 0x27, 0xb4, 0x3d, 0x80, 0x33, 0x79, 0x3d, 0x20, 0x00, 0xdb, 0xbc,
  0xca, 0x46, 0xa9, 0x3e, 0xe0, 0xee, 0x7f, 0x3c, 0xa8, 0xd3, 0x9b, 0x3e,
  0xac, 0xc1, 0x40, 0x3f, 0x92, 0x9b, 0x43, 0xbe, 0xc9, 0x40, 0x1d, 0x3f,
  0xc0, 0x77, 0xf0, 0x3d, 0x3b, 0x23, 0xb4, 0xbd, 0x3e, 0x2e, 0xba, 0xbe,
  0xf3, 0x3b, 0x77, 0x3e, 0x92, 0x0a, 0x37, 0x3d, 0xc0, 0xdf, 0xc3, 0xbe,
  0xb4, 0xac, 0xa2, 0x3e, 0xfb, 0x62, 0xaa, 0xbe, 0xa3, 0x5f, 0x41, 0x3e,
  0x9f, 0x06, 0xc1, 0x3e, 0x3d, 0x3a, 0xed, 0x3e, 0x62, 0x79, 0x13, 0xbe,
  0xa8, 0x82, 0x0f, 0x3f, 0x45, 0xb9, 0x01, 0xbc, 0xff, 0x03, 0xf0, 0xbd,
  0xf4, 0xc2, 0x19, 0x3d, 0x38, 0xd3, 0x37, 0x3e, 0xb9, 0xfb, 0x5f, 0xbe,
  0x91, 0xfb, 0xa0, 0x3e, 0x3a, 0x28, 0x00, 0x3f, 0x74, 0x56, 0x21, 0x3f,
  0x54, 0xa6, 0x27, 0xbe, 0x66, 0x52, 0x9e, 0x3e, 0xbc, 0x00, 0x95, 0x3e,
  0x50, 0xfb, 0xb2, 0xbc, 0xc9, 0x51, 0x18, 0x3d, 0x00, 0x10, 0x58, 0x3d,
  0xf7, 0x05, 0x4c, 0xbe, 0x09, 0xd4, 0xa7, 0xbd, 0xb3, 0x8a, 0xe0, 0xbe,
  0x8a, 0xe0, 0x72, 0xbe, 0x6f, 0x2b, 0xaa, 0xbe, 0x08, 0x37, 0xb0, 0x3e,
  0x69, 0xd3, 0xc7, 0xbe, 0x69, 0x98, 0x27, 0x3e, 0x08, 0x35, 0x48, 0xbe,
  0x10, 0x0d, 0xcb, 0xbe, 0xec, 0x83, 0xab, 0xbd, 0xdc, 0x7f, 0xb9, 0x3d,
  0x96, 0xb6, 0x77, 0xbe, 0x38, 0x6f, 0x5e, 0xbd, 0x0c, 0xe7, 0x75, 0xbd,
  0x3b, 0x2d, 0x88, 0x3e, 0x4a, 0xb0, 0x89, 0x3e, 0x4a, 0x4e, 0x0a, 0xbe,
  0xed, 0x5e, 0x7e, 0x3e, 0x52, 0x99, 0x8c, 0xbe, 0x03, 0x40, 0x03, 0xbd,
  0x4e, 0xb6, 0xc6, 0xbe, 0xe8, 0x3d, 0xc3, 0xbc, 0x3e, 0xf2, 0x38, 0xbe,
  0xc5, 0x69, 0x9b, 0x3e, 0x1a, 0xa1, 0x19, 0xbe, 0xc9, 0x7b, 0xb8, 0xbd,
  0x0b, 0x08, 0xae, 0xbe, 0xec, 0x0c, 0xda, 0x3d, 0xda, 0x27, 0xaf, 0xbe,
  0x3f, 0xdb, 0xa4, 0x3e, 0x90, 0x59, 0x4c, 0x3d, 0xa0, 0xb7, 0x43, 0xbe,
  0xf1, 0x27, 0x7a, 0x3e, 0xdc, 0x77, 0xd8, 0x3d, 0x11, 0x80, 0x42, 0xbe,
  0x1a, 0x72, 0xce, 0xbd, 0xd0, 0x4f, 0x78, 0x3e, 0xd1, 0xbc, 0xbd, 0x3e,
  0x8e, 0x4d, 0x8d, 0xbe, 0x1a, 0x76, 0xb9, 0x3e, 0x43, 0xf1, 0x60, 0xbe,
  0xc8, 0x66, 0xc5, 0x3d, 0xf0, 0x16, 0x26, 0x3e, 0x94, 0x66, 0x92, 0xbd,
  0x56, 0x7f, 0xbd, 0x3e, 0xd8, 0x0b, 0xe2, 0xbd, 0x78, 0xf4, 0xfd, 0x3d,
  0xdc, 0x20, 0xaa, 0xbe, 0x40, 0xd8, 0xc2, 0xbe, 0x10, 0x10, 0xed, 0x3d,
  0x38, 0xb0, 0x21, 0xbe, 0xc4, 0xd8, 0x83, 0x3d, 0xde, 0x3f, 0x0d, 0xbe,
  0xe0, 0x88, 0x66, 0xbc, 0x51, 0x65, 0x3b, 0xbe, 0xa8, 0xec, 0x04, 0x3e,
  0xe3, 0x38, 0x5b, 0xbe, 0x50, 0x09, 0x8d, 0x3d, 0xa0, 0xa8, 0xad, 0x3d,
  0x60, 0xa7, 0x02, 0xbe, 0x18, 0x08, 0x12, 0xbe, 0x1f, 0x6d, 0xb5, 0xbe,
  0xb0, 0xe9, 0x0b, 0x3e, 0x6e, 0x98, 0x91, 0xbe, 0xe3, 0x88, 0x4a, 0xbe,
  0x68, 0xdd, 0x81, 0x3d, 0xf4, 0x9e, 0x60, 0x3e, 0x34, 0x00, 0xdd, 0x3d,
  0x3e, 0x3e, 0x07, 0xbe, 0x30, 0x0c, 0xdc, 0x3c, 0x70, 0x62, 0x19, 0xbe,
  0x2a, 0xf0, 0x08, 0xbe, 0x03, 0x09, 0xbd, 0xbe, 0x30, 0x99, 0x0f, 0x3d,
  0x10, 0x7a, 0x68, 0x3e, 0x46, 0x7f, 0xac, 0xbe, 0x4c, 0x98, 0x42, 0x3e,
  0x38, 0x93, 0x70, 0xbd, 0x07, 0xcb, 0x74, 0xbe, 0xfd, 0x98, 0x56, 0xbe,
  0xd8, 0x33, 0x42, 0x3d, 0x3e, 0xc0, 0xc3, 0xbe, 0x54, 0x2b, 0x0a, 0xbe,
  0xc0, 0x57, 0xaa, 0xbe, 0xaf, 0x87, 0xac, 0xbe, 0xc8, 0xc0, 0xb8, 0xbd,
  0x14, 0x40, 0x73, 0x3e, 0x70, 0x88, 0x13, 0xbe, 0x4c, 0x64, 0xd6, 0xbd,
  0x4a, 0x43, 0xc2, 0x3e, 0x00, 0xc8, 0x5a, 0xbc, 0x38, 0x6d, 0x53, 0xbd,
  0x08, 0x71, 0x03, 0x3e, 0xb4, 0xb0, 0xdb, 0xbd, 0x18, 0xf8, 0xeb, 0x3d,
  0x58, 0x45, 0xbc, 0xbd, 0xe7, 0x57, 0x63, 0xbe, 0x60, 0x58, 0xa4, 0x3e,
  0x64, 0x7b, 0x85, 0xbe, 0x58, 0xc1, 0x9a, 0x3e, 0x70, 0x74, 0x80, 0xbd,
  0x06, 0xea, 0xad, 0x3e, 0x70, 0x2a, 0xe8, 0x3c, 0xec, 0x8d, 0x90, 0xbd,
  0xf7, 0xb3, 0xb6, 0xbe, 0x78, 0x72, 0x8d, 0x3e, 0x14, 0x6b, 0xac, 0x3d,
  0xb8, 0x1b, 0x7e, 0xbe, 0x20, 0x7d, 0xe0, 0xbd, 0x13, 0x37, 0x5c, 0xbe,
  0x12, 0xbf, 0x81, 0xbe, 0x22, 0x6a, 0x90, 0x3e, 0xc3, 0xd8, 0x4e, 0xbe,
  0x41, 0x36, 0xb1, 0xbe, 0xd2, 0x5d, 0x8f, 0xbe, 0x50, 0xef, 0x45, 0x3d,
  0x08, 0x8d, 0x4b, 0x3e, 0x0f, 0x75, 0x84, 0xbe, 0xf6, 0x50, 0x97, 0xbe,
  0x40, 0x7a, 0x99, 0x3d, 0x20, 0x74, 0xd6, 0x3c, 0xac, 0x30, 0x02, 0x3e,
  0xfa, 0xbc, 0xbb, 0xbe, 0xee, 0x8a, 0xbb, 0x3e, 0x40, 0x53, 0x85, 0x3e,
  0xd8, 0xdc, 0xa7, 0x3e, 0x18, 0x46, 0xbc, 0x3e, 0x3c, 0x44, 0xa7, 0xbd,
  0xf8, 0xf5, 0xcc, 0xbd, 0x48, 0x63, 0x09, 0x3e, 0x10, 0xe5, 0x50, 0x3e,
  0x8a, 0x1f, 0xbe, 0xbe, 0x9b, 0xaf, 0x9f, 0xbe, 0xb3, 0xa2, 0xac, 0xbe,
  0x00, 0x00, 0x00, 0x00, 0x66, 0xf0, 0xff, 0xff, 0x04, 0x00, 0x00, 0x00,
  0x00, 0x04, 0x00, 0x00, 0x05, 0x04, 0x07, 0xf6, 0xfb, 0xfd, 0xff, 0x05,
  0x01, 0x02, 0x0a, 0x06, 0x05, 0x07, 0xf6, 0xfe, 0x04, 0x05, 0x01, 0x09,
  0xff, 0xfb, 0xff, 0xfc, 0x05, 0xff, 0x06, 0xfa, 0xf7, 0x04, 0xfb, 0x08,
  0xff, 0x05, 0xfe, 0x07, 0xfa, 0x03, 0x07, 0x00, 0x06, 0x06, 0x05, 0x02,
  0xfc, 0xfd, 0x07, 0xf6, 0x00, 0x02, 0xfd, 0xff, 0xf5, 0xfe, 0xfe, 0xfd,
  0xf4, 0xf9, 0x01, 0xfd, 0xf7, 0x04, 0x06, 0xf4, 0x0b, 0x01, 0x01, 0xfc,
  0xff, 0xfb, 0x03, 0x03, 0x09, 0x07, 0x05, 0xf8, 0x07, 0xfe, 0x01, 0x03,
  0x0a, 0x09, 0xff, 0xfa, 0x09, 0x05, 0x05, 0xfb, 0xf0, 0x0a, 0xfc, 0x02,
  0x0b, 0xfa, 0x0a, 0xf9, 0x00, 0x00, 0x02, 0x0a, 0x01, 0xf8, 0xfb, 0xf8,
  0x08, 0xfd, 0xfc, 0x09, 0x03, 0xf6, 0x04, 0xfa, 0xfe, 0x09, 0x08, 0x04,
  0x01, 0xe9, 0x05, 0x01, 0xfb, 0xff, 0xff, 0xfa, 0xf3, 0xf5, 0xf8, 0xed,
  0xfa, 0x08, 0x08, 0x01, 0xf9, 0xf9, 0xfd, 0xfa, 0x08, 0xf9, 0x03, 0xfd,
  0x02, 0xfb, 0xf9, 0xff, 0x04, 0x00, 0xf9, 0xf9, 0xf8, 0x0a, 0xff, 0xf6,
  0x09, 0x0a, 0x00, 0x07, 0x08, 0x01, 0xfd, 0x08, 0xfa, 0xfd, 0x09, 0x08,
  0xfb, 0xf8, 0xfe, 0xfd, 0xfd, 0xf7, 0xfa, 0xf8, 0x09, 0xfc, 0xf6, 0xfe,
  0x09, 0xfd, 0xfe, 0x09, 0xfe, 0xff, 0xfe, 0xf8, 0xfa, 0xfe, 0x0a, 0x02,
  0x03, 0x04, 0xff, 0xf9, 0x06, 0xfe, 0xfb, 0x05, 0xfd, 0x08, 0xf9, 0xf9,
  0xf6, 0x08, 0x07, 0x01, 0x00, 0x08, 0xf4, 0xf5, 0x00, 0x0c, 0x0a, 0xfc,
  0xfb, 0xfc, 0xb3, 0x0a, 0x4f, 0x00, 0xfe, 0x03, 0x06, 0x03, 0x05, 0xab,
  0xf9, 0xf8, 0x03, 0x0b, 0x04, 0x07, 0x02, 0xf7, 0xf7, 0x06, 0xfa, 0xfa,
  0xfa, 0xf8, 0x07, 0x07, 0xfd, 0xf8, 0xff, 0xfc, 0xfe, 0xfd, 0xff, 0xf9,
  0xf8, 0x06, 0xfb, 0xf8, 0x03, 0xf7, 0x06, 0xfe, 0xf6, 0x01, 0x04, 0x04,
  0x08, 0x08, 0xf8, 0xfa, 0x05, 0xfc, 0x08, 0x08, 0xf7, 0xf6, 0x06, 0x02,
  0x03, 0x00, 0xfb, 0xff, 0x04, 0xab, 0xff, 0x04, 0xd8, 0x0a, 0x00, 0xff,
  0xfc, 0xf8, 0x08, 0xf5, 0xfd, 0x0a, 0x09, 0xfd, 0xf8, 0x08, 0xf6, 0xf7,
  0xf9, 0xf6, 0xf6, 0x09, 0x09, 0x0a, 0xfb, 0xfe, 0x09, 0xf6, 0x07, 0xfa,
  0x07, 0xff, 0xff, 0xff, 0x02, 0x03, 0x02, 0x07, 0x01, 0xf7, 0x01, 0xf8,
  0x02, 0x09, 0x08, 0x00, 0xff, 0xf9, 0xf6, 0xfa, 0x03, 0x03, 0x01, 0xff,
  0xfe, 0x06, 0xfe, 0x0b, 0xfa, 0xf6, 0xfb, 0xff, 0x04, 0xcb, 0x0f, 0xf8,
  0xf1, 0x09, 0x01, 0x00, 0xed, 0xdd, 0x08, 0x05, 0x03, 0x05, 0xfb, 0x04,
  0x02, 0x07, 0x08, 0xfb, 0x02, 0x00, 0x07, 0xf7, 0xfd, 0x01, 0x02, 0x0a,
  0xfc, 0xfb, 0x03, 0x00, 0x06, 0x09, 0xfd, 0xfa, 0x01, 0x08, 0xf9, 0x02,
  0xfa, 0x02, 0xf9, 0xfa, 0x01, 0xfc, 0xfb, 0x01, 0xf8, 0x09, 0x01, 0xf2,
  0x02, 0xf9, 0xfc, 0x09, 0xf7, 0xfb, 0xf8, 0xf5, 0xf8, 0x05, 0xfc, 0xf8,
  0xe8, 0xf7, 0x06, 0x01, 0x07, 0xfc, 0x01, 0xfd, 0x81, 0x06, 0x04, 0x0e,
  0x0f, 0xf9, 0x03, 0x0b, 0xfb, 0x04, 0xf8, 0xff, 0xf8, 0xf7, 0x01, 0x06,
  0xf7, 0x06, 0x06, 0xfd, 0x05, 0xff, 0xf9, 0xfd, 0xff, 0x00, 0xfe, 0x0a,
  0xfe, 0xff, 0x08, 0xf9, 0x00, 0x09, 0xff, 0xfc, 0x06, 0x03, 0xfb, 0xfd,
  0x06, 0x02, 0x0a, 0x02, 0x09, 0x00, 0xf9, 0x08, 0xf7, 0xfd, 0xfe, 0x05,
  0xfd, 0xf8, 0x02, 0x02, 0xf3, 0x00, 0x02, 0x00, 0xf8, 0x0a, 0xff, 0x06,
  0xf8, 0x08, 0x03, 0xfb, 0x09, 0xfa, 0x01, 0xfd, 0x00, 0x00, 0xff, 0x00,
  0xfc, 0x01, 0x09, 0xff, 0xf7, 0x0a, 0x09, 0xf6, 0xf9, 0xfb, 0x0b, 0x02,
  0x04, 0x03, 0x00, 0x06, 0xff, 0x01, 0xf8, 0xf7, 0xfd, 0xf8, 0x01, 0x02,
  0xf9, 0xff, 0x08, 0x04, 0xf6, 0xfd, 0xf8, 0x0a, 0xfe, 0x09, 0x07, 0x00,
  0xfd, 0x07, 0x03, 0xff, 0xf9, 0xf5, 0xfe, 0xf8, 0xd0, 0x09, 0x0d, 0xfd,
  0xfe, 0x09, 0xfb, 0xf6, 0x00, 0x00, 0x09, 0x04, 0x07, 0x04, 0x0a, 0x07,
  0x09, 0xfe, 0x03, 0xf4, 0x01, 0x08, 0x05, 0x09, 0xf9, 0xfa, 0x09, 0x07,
  0x03, 0xdf, 0x06, 0x03, 0x0c, 0x0e, 0x0d, 0xf9, 0xf6, 0x09, 0x05, 0x02,
  0x00, 0xf6, 0xfb, 0x07, 0x03, 0xf7, 0x07, 0xf6, 0xff, 0x04, 0xf9, 0x05,
  0x09, 0xfa, 0xfa, 0x01, 0x0a, 0xfd, 0x08, 0x0c, 0x00, 0xf7, 0xff, 0x04,
  0xfc, 0xe0, 0x14, 0xf9, 0xda, 0xff, 0x08, 0x07, 0xe7, 0xf4, 0xfe, 0xd3,
  0xf6, 0xfe, 0xfa, 0xfb, 0x01, 0xfe, 0xf6, 0x0a, 0x00, 0xf6, 0x05, 0x09,
  0xfa, 0x01, 0x05, 0x05, 0xfe, 0x09, 0x05, 0x08, 0xf6, 0x09, 0xfe, 0xf7,
  0xfe, 0x03, 0x0a, 0x03, 0xfd, 0xfe, 0xf8, 0x04, 0x02, 0xff, 0xfb, 0xf6,
  0xf7, 0xfc, 0x05, 0xf8, 0xfa, 0x02, 0x05, 0xf6, 0xf8, 0x07, 0xfc, 0x00,
  0xf7, 0xfe, 0xf8, 0x06, 0xfc, 0x01, 0x00, 0xf9, 0xf7, 0x08, 0xf6, 0x08,
  0xf6, 0x0a, 0x03, 0x00, 0xf8, 0xfc, 0x07, 0xfe, 0xfd, 0xfa, 0x08, 0xf6,
  0xfb, 0x08, 0x07, 0x02, 0xf6, 0x01, 0xfa, 0xf9, 0x0a, 0x05, 0xfc, 0xf9,
  0xfe, 0xf9, 0x04, 0xff, 0x07, 0x04, 0x04, 0xfa, 0xf9, 0xf6, 0x03, 0x08,
  0xfb, 0x07, 0x01, 0x04, 0x0a, 0xff, 0xfe, 0x09, 0xf9, 0x02, 0xfb, 0xf7,
  0xfc, 0xfc, 0xf9, 0xfd, 0xf9, 0xfa, 0xf7, 0x09, 0xf9, 0x03, 0x01, 0xf6,
  0x03, 0xfb, 0x08, 0x02, 0xfc, 0x08, 0xf6, 0xf6, 0xf9, 0x07, 0x02, 0x03,
  0x05, 0x06, 0x08, 0x08, 0x08, 0xfb, 0xfd, 0x09, 0xfd, 0xfd, 0xfd, 0xfa,
  0xff, 0x01, 0xf9, 0xfe, 0x02, 0x04, 0xfa, 0x00, 0xfa, 0xfb, 0x09, 0xff,
  0xfc, 0xf3, 0x01, 0x06, 0xfc, 0xf7, 0x02, 0x04, 0xff, 0xff, 0xfd, 0x08,
  0xfe, 0x01, 0xf8, 0xfe, 0x03, 0x0a, 0xf8, 0x07, 0x05, 0x05, 0x0a, 0x08,
  0xf7, 0xf8, 0xff, 0xfd, 0xfe, 0x01, 0xf7, 0xfc, 0xfa, 0xfd, 0xfc, 0xf9,
  0xfc, 0x00, 0xfd, 0x09, 0x04, 0x00, 0xf6, 0x09, 0x02, 0x0a, 0x02, 0xf7,
  0xfa, 0xfc, 0xf7, 0x05, 0x0a, 0x05, 0xf9, 0x06, 0xf6, 0xf7, 0x01, 0x08,
  0x0a, 0x05, 0x06, 0x04, 0x09, 0x07, 0xfe, 0xf6, 0x01, 0x05, 0xf9, 0xfb,
  0x05, 0xfd, 0x09, 0x09, 0x05, 0x0a, 0x01, 0xfc, 0x05, 0xf6, 0x0b, 0xff,
  0xfe, 0x03, 0x00, 0x07, 0xfe, 0xf9, 0x08, 0x02, 0xfe, 0x02, 0x02, 0x05,
  0x08, 0x00, 0x04, 0x07, 0x02, 0x01, 0xfb, 0x0a, 0xf6, 0xfb, 0x07, 0xfa,
  0x09, 0xfa, 0xf8, 0x09, 0x02, 0x08, 0x07, 0xfa, 0xfa, 0xe7, 0xf8, 0xff,
  0xf7, 0x08, 0x0b, 0x03, 0xfd, 0xff, 0xfc, 0x02, 0x03, 0xfd, 0xfa, 0x0c,
  0x06, 0xfa, 0xfa, 0xf8, 0x06, 0xff, 0x06, 0x04, 0x09, 0x07, 0xf8, 0xf9,
  0xf7, 0x05, 0xf7, 0x00, 0x02, 0xf7, 0xfd, 0xfe, 0x09, 0xfa, 0x03, 0xfd,
  0xfb, 0x02, 0x09, 0xf9, 0x03, 0xfe, 0x01, 0x08, 0xf7, 0xf9, 0x08, 0xfa,
  0x06, 0xfb, 0x03, 0x07, 0x07, 0x02, 0xfe, 0x06, 0x06, 0xfc, 0x06, 0x05,
  0xfa, 0x0b, 0xf8, 0xfb, 0xfa, 0xe5, 0x03, 0xf6, 0x0c, 0x04, 0xfb, 0x05,
  0xfc, 0x02, 0xf9, 0x0b, 0x01, 0x07, 0xf8, 0x01, 0xf9, 0x05, 0x01, 0xf7,
  0xfe, 0xf7, 0xfe, 0x04, 0xf9, 0x00, 0xfa, 0x02, 0xf8, 0x04, 0x01, 0x05,
  0xfe, 0xff, 0x05, 0xff, 0x05, 0x0a, 0x01, 0x03, 0xfe, 0x08, 0xf6, 0x02,
  0x04, 0xf9, 0x08, 0x03, 0x07, 0xf7, 0x07, 0x0d, 0x02, 0x07, 0x00, 0x02,
  0xf8, 0xfa, 0xf7, 0xfa, 0xf9, 0x0e, 0x03, 0x09, 0x14, 0x0f, 0xf1, 0x08,
  0x08, 0xfc, 0x04, 0x04, 0x07, 0x08, 0x07, 0xef, 0x00, 0x00, 0x00, 0x00,
  0x76, 0xf4, 0xff, 0xff, 0x04, 0x00, 0x00, 0x00, 0x00, 0x08, 0x00, 0x00,
  0x00, 0x8c, 0x98, 0xbd, 0x50, 0x38, 0xa1, 0x3d, 0xe3, 0x75, 0xdd, 0x3e,
  0xea, 0x16, 0x80, 0xbe, 0x51, 0xcb, 0x5b, 0xbe, 0xda, 0x89, 0x6b, 0x3e,
  0xf8, 0xcd, 0xc1, 0x3d, 0x0c, 0x92, 0x5b, 0x3e, 0x8c, 0x52, 0x8a, 0xbe,
  0x30, 0xeb, 0xab, 0x3c, 0xd8, 0xc7, 0x8e, 0xbd, 0xcd, 0x26, 0x71, 0xbd,
  0xcc, 0xe2, 0x84, 0xbe, 0x8c, 0x5e, 0x58, 0xbe, 0xa4, 0x83, 0xbe, 0x3e,
  0xaa, 0xaa, 0x79, 0x3e, 0x00, 0x73, 0xc3, 0xba, 0xf0, 0xf0, 0xef, 0x3c,
  0xa4, 0x7c, 0x33, 0xbe, 0x2c, 0x6b, 0x97, 0xbe, 0xe3, 0x4f, 0xa4, 0xbe,
  0xa5, 0x6d, 0x8f, 0xbe, 0xbe, 0xb5, 0x59, 0x3e, 0x93, 0x42, 0x84, 0xbe,
  0x53, 0xb2, 0xa9, 0x3e, 0xb0, 0x08, 0xb4, 0x3c, 0xb6, 0x22, 0x64, 0xbe,
  0x81, 0x67, 0xa0, 0xbd, 0xc7, 0xed, 0x4c, 0xbe, 0x44, 0x76, 0xba, 0xbd,
  0x0a, 0x9b, 0x41, 0xbe, 0x0b, 0xff, 0x9b, 0x3e, 0xc0, 0x73, 0x89, 0x3c,
  0x00, 0x64, 0xb7, 0xbc, 0xed, 0x25, 0xbe, 0xbe, 0x20, 0xad, 0xb0, 0xbe,
  0x56, 0xd3, 0x67, 0x3e, 0xa0, 0xfc, 0xf5, 0x3d, 0x9c, 0xb7, 0xae, 0xbe,
  0x33, 0x4b, 0xef, 0x3d, 0x36, 0x50, 0x28, 0x3e, 0xd7, 0xa7, 0x26, 0xbe,
  0xa9, 0x99, 0x9c, 0x3e, 0x84, 0x6d, 0xb3, 0xbe, 0x3a, 0x4e, 0x77, 0x3e,
  0xfa, 0x56, 0x06, 0xbe, 0xdc, 0x76, 0xb9, 0xbc, 0x7c, 0xe8, 0x4e, 0x3e,
  0xba, 0xbe, 0x76, 0x3e, 0x08, 0x60, 0xc2, 0xbd, 0xcf, 0x16, 0x0c, 0xbe,
  0xff, 0x54, 0x91, 0x3e, 0x0d, 0xed, 0x8c, 0x3e, 0x60, 0x0b, 0xa1, 0x3d,
  0xf0, 0xbb, 0x84, 0xbe, 0x02, 0x8e, 0x8b, 0xbe, 0xa0, 0x43, 0x6e, 0x3e,
  0xe0, 0x5f, 0xa6, 0xbc, 0x6a, 0xa0, 0x3c, 0x3e, 0xe3, 0xf4, 0x9b, 0xbe,
  0x4b, 0xfb, 0x85, 0x3e, 0x88, 0xd9, 0x14, 0x3d, 0xa6, 0xb4, 0x90, 0xbc,
  0x30, 0x64, 0x3a, 0xbe, 0x40, 0x88, 0x85, 0xbb, 0x00, 0xff, 0xb8, 0xbc,
  0xb0, 0xff, 0x87, 0x3e, 0x36, 0xe1, 0x46, 0xbe, 0x2f, 0xf8, 0x5c, 0xbe,
  0x94, 0xf0, 0x40, 0xbe, 0xaa, 0x80, 0x14, 0x3e, 0x8f, 0x74, 0x95, 0xbe,
  0x1b, 0x7e, 0x57, 0xbe, 0xeb, 0x2f, 0xa4, 0x3e, 0x38, 0x46, 0xee, 0x3d,
  0x0a, 0x66, 0x3c, 0x3e, 0xc0, 0x64, 0xaf, 0xbd, 0xc0, 0xb5, 0x0f, 0xbc,
  0x00, 0xa7, 0xc8, 0x3b, 0xbb, 0xd5, 0x80, 0x3e, 0xb8, 0xb7, 0x1d, 0xbd,
  0x00, 0x51, 0x10, 0x3b, 0xf9, 0xd2, 0xd0, 0x3d, 0xd0, 0x63, 0x3b, 0xbd,
  0xca, 0xd7, 0xb7, 0xbe, 0xeb, 0x5c, 0x24, 0xbe, 0x08, 0xfb, 0x32, 0x3d,
  0xdf, 0x6c, 0x13, 0xbe, 0xe0, 0x20, 0x0a, 0x3e, 0x85, 0xc1, 0x43, 0xbe,
  0x49, 0x3c, 0x17, 0xbe, 0xad, 0xc8, 0x80, 0xbe, 0xfe, 0xcd, 0xf7, 0xbd,
  0xe8, 0x5f, 0x8e, 0x3d, 0x3a, 0x1e, 0x70, 0xbd, 0x2b, 0x80, 0xbf, 0xbe,
  0xe0, 0xf2, 0xfd, 0xbc, 0x69, 0xa2, 0x8a, 0x3e, 0x18, 0x3b, 0xc8, 0xbd,
  0x3f, 0x92, 0x4d, 0xbe, 0x94, 0x06, 0xa2, 0xbd, 0xee, 0x05, 0x39, 0x3e,
  0xbd, 0x4e, 0x8c, 0x3e, 0x6c, 0x87, 0x81, 0xbd, 0xb7, 0x7f, 0x9b, 0xbe,
  0xbd, 0xa3, 0x8b, 0x3e, 0xd8, 0xab, 0x3b, 0xbd, 0x12, 0x1f, 0x79, 0x3e,
  0x88, 0xa9, 0xd7, 0x3d, 0x00, 0x1e, 0x40, 0xbb, 0xec, 0x10, 0x79, 0xbe,
  0xa0, 0x86, 0x91, 0x3d, 0xa8, 0xb0, 0x2d, 0xbd, 0xc0, 0xb4, 0x7f, 0xbd,
  0x1e, 0x94, 0x04, 0xbe, 0x60, 0x17, 0x7b, 0xbd, 0x6f, 0x5d, 0xac, 0xbd,
  0x0c, 0xcc, 0xbd, 0x3d, 0xec, 0x14, 0x8e, 0xbe, 0x9a, 0x32, 0x21, 0x3e,
  0x36, 0xaa, 0xf9, 0x3c, 0xbd, 0xb3, 0x93, 0x3e, 0xb9, 0x6e, 0x4b, 0xbe,
  0x67, 0x03, 0x1e, 0x3e, 0xc0, 0x1f, 0x7a, 0xbc, 0x60, 0x86, 0x11, 0xbd,
  0xa1, 0x30, 0x4e, 0x3e, 0x09, 0xa7, 0xa5, 0xbe, 0x02, 0xbb, 0x49, 0x3e,
  0x18, 0xc6, 0x6b, 0xbd, 0xf8, 0x21, 0x9c, 0xbd, 0x40, 0xcd, 0xa8, 0xbe,
  0x39, 0x73, 0x55, 0xbe, 0xea, 0x37, 0x40, 0xbe, 0xde, 0x6e, 0x74, 0x3e,
  0x08, 0xcb, 0x2b, 0xbd, 0xf4, 0x6a, 0xfc, 0x3d, 0x40, 0xab, 0x92, 0x3b,
  0x5b, 0xe3, 0x83, 0x3e, 0xa9, 0xe1, 0x97, 0x3e, 0xc6, 0x34, 0x37, 0x3e,
  0x9b, 0x59, 0xb3, 0x3e, 0x61, 0xb5, 0x23, 0xbe, 0x00, 0x91, 0x74, 0xbc,
  0xf0, 0x7d, 0xa6, 0xbc, 0xdc, 0x38, 0x97, 0xbd, 0x4f, 0x76, 0x67, 0xbe,
  0x33, 0xd2, 0x9a, 0x3e, 0x9a, 0x20, 0x2f, 0xbe, 0x80, 0x24, 0x88, 0x3d,
  0x47, 0x37, 0x61, 0xbe, 0xe2, 0xa0, 0x0c, 0xbe, 0x30, 0xd9, 0x55, 0xbd,
  0x88, 0xb0, 0x44, 0x3d, 0x82, 0x2b, 0x43, 0x3e, 0x1b, 0x4a, 0x99, 0xbe,
  0x12, 0x20, 0x62, 0xbe, 0xa8, 0xde, 0x15, 0x3d, 0x8a, 0x59, 0x77, 0x3e,
  0x09, 0x75, 0x22, 0xbe, 0x04, 0x67, 0x74, 0xbe, 0xce, 0x80, 0xfd, 0xbd,
  0x84, 0x1a, 0xba, 0xbd, 0xd3, 0x9d, 0x8e, 0x3e, 0x2a, 0x62, 0x81, 0xbe,
  0xbc, 0xcb, 0x83, 0x3d, 0xc8, 0x00, 0xc4, 0xbd, 0x6b, 0xf5, 0x98, 0xbe,
  0x5f, 0x7a, 0x89, 0x3e, 0x60, 0x29, 0x0f, 0x3c, 0x3a, 0x54, 0x32, 0x3e,
  0x30, 0xa2, 0x4c, 0xbd, 0xfd, 0x22, 0x8e, 0x3e, 0x72, 0xad, 0xa3, 0xbe,
  0x11, 0x7f, 0xab, 0xbe, 0xdf, 0xd9, 0x93, 0x3e, 0x0c, 0x19, 0x85, 0x3d,
  0x43, 0x86, 0x91, 0x3e, 0xa5, 0x10, 0xa3, 0xbe, 0x79, 0xc9, 0xb0, 0x3e,
  0xad, 0x5d, 0x40, 0xbe, 0x76, 0x31, 0x7b, 0x3e, 0x02, 0xe9, 0x19, 0x3e,
  0x14, 0x4d, 0xc5, 0xbd, 0xe3, 0x4b, 0x30, 0xbe, 0xf6, 0x6b, 0x7a, 0x3e,
  0x9f, 0xb8, 0x07, 0xbe, 0x2c, 0x89, 0xf4, 0x3d, 0x2c, 0xb4, 0x8e, 0xbe,
  0xb2, 0xd0, 0x30, 0x3e, 0xe9, 0x52, 0x91, 0x3e, 0x88, 0xeb, 0x40, 0xbd,
  0x1e, 0xc1, 0x40, 0x3e, 0xce, 0x69, 0x17, 0x3e, 0x79, 0x7c, 0x6b, 0x3e,
  0x08, 0x53, 0x9a, 0x3d, 0x01, 0xf9, 0x42, 0x3e, 0x5f, 0xc9, 0xa8, 0x3e,
  0x30, 0xe5, 0x07, 0xbe, 0x26, 0xc1, 0x9c, 0x3b, 0x66, 0x6e, 0x86, 0xbe,
  0x9d, 0x64, 0xb0, 0xbe, 0x43, 0xcd, 0xa8, 0xbe, 0x5f, 0xff, 0x2d, 0xbe,
  0x4e, 0x9c, 0x61, 0xbe, 0x20, 0x89, 0x03, 0x3c, 0xea, 0x45, 0x5f, 0xbe,
  0xff, 0xca, 0x84, 0xbe, 0x46, 0x8d, 0x40, 0xbe, 0x4f, 0x60, 0x40, 0xbe,
  0x80, 0x39, 0x46, 0xbc, 0xa8, 0x10, 0x17, 0x3d, 0x36, 0xb7, 0x5d, 0x3e,
  0x10, 0x81, 0xdc, 0x3c, 0x92, 0xd9, 0x1b, 0x3e, 0x3c, 0xcd, 0xa9, 0xbe,
  0x83, 0x8b, 0x95, 0xbe, 0x86, 0x41, 0x81, 0xbe, 0x3a, 0x27, 0x1a, 0x3e,
  0xb8, 0x0b, 0xd0, 0x3d, 0xe4, 0x25, 0xae, 0x3d, 0xba, 0xa7, 0x48, 0x3e,
  0x12, 0xab, 0x6d, 0xbe, 0xe2, 0x38, 0x44, 0x3e, 0xad, 0x05, 0x46, 0xbe,
  0x28, 0x26, 0x21, 0xbe, 0x45, 0xfe, 0x78, 0xbc, 0x61, 0xa1, 0x9b, 0xbe,
  0xc8, 0x9a, 0x12, 0x3e, 0x70, 0x77, 0xbc, 0x3d, 0x87, 0xc0, 0x4b, 0xbe,
  0x42, 0x27, 0x7b, 0x3e, 0xb8, 0x19, 0x45, 0x3e, 0x40, 0xe9, 0x78, 0x3c,
  0x64, 0xda, 0xaf, 0xbd, 0xe7, 0x5f, 0x55, 0x3e, 0x20, 0xc5, 0xfd, 0xbd,
  0x12, 0xbc, 0x6e, 0x3e, 0xf8, 0xa5, 0xd7, 0x3e, 0x8a, 0xf9, 0x31, 0xbb,
  0x48, 0x63, 0x9f, 0xbd, 0xf4, 0x95, 0xe2, 0xbd, 0x4b, 0x85, 0x2e, 0x3e,
  0x4a, 0x91, 0x63, 0x3e, 0x38, 0xf7, 0x41, 0xbe, 0x05, 0x8d, 0x89, 0x3e,
  0x9d, 0x66, 0x87, 0x3e, 0xa5, 0x09, 0x8a, 0xbe, 0x95, 0x77, 0xa5, 0x3d,
  0xd6, 0x9c, 0x79, 0x3e, 0xc7, 0x21, 0x8a, 0x3e, 0x14, 0x2c, 0xa1, 0xbe,
  0xd3, 0xc7, 0x24, 0xbe, 0xbf, 0x29, 0x82, 0x3e, 0xb1, 0xef, 0xa0, 0xbe,
  0x47, 0xe2, 0xdd, 0x3c, 0x82, 0xb8, 0xdf, 0xbd, 0x8c, 0x5a, 0xd4, 0xbd,
  0x8c, 0x64, 0x84, 0xbe, 0xd7, 0x38, 0xaf, 0x3e, 0xd3, 0xf2, 0xa0, 0xbe,
  0xe1, 0xa4, 0x04, 0xbe, 0x06, 0x8e, 0x6b, 0xbe, 0xd1, 0x98, 0x32, 0xbe,
  0xa1, 0x28, 0x00, 0xbe, 0x84, 0x0c, 0xdd, 0x3d, 0x28, 0xcf, 0x60, 0xbd,
  0x98, 0x3e, 0x1e, 0xbd, 0xc4, 0xb6, 0x6b, 0xbe, 0x1f, 0xa7, 0xaa, 0x3e,
  0x4e, 0xec, 0x60, 0x3e, 0x08, 0x63, 0x74, 0x3d, 0xce, 0x9f, 0x34, 0x3e,
  0xa0, 0x95, 0x67, 0x3c, 0x3a, 0xd5, 0xcc, 0xbb, 0xb5, 0xcf, 0x8e, 0xbe,
  0xa6, 0x48, 0x70, 0xbe, 0x20, 0xb7, 0xe2, 0xbc, 0xfb, 0x68, 0xa2, 0x3e,
  0x3c, 0x54, 0xc7, 0xbd, 0x23, 0x45, 0xc8, 0x3e, 0x2d, 0x3f, 0x74, 0xbe,
  0xab, 0xc8, 0xa5, 0x3e, 0x7e, 0x0d, 0xe4, 0xbe, 0x7d, 0x56, 0x8d, 0xbe,
  0x3c, 0x1d, 0x80, 0xbe, 0x36, 0x31, 0x15, 0x3f, 0x52, 0xcf, 0x6b, 0xbe,
  0xc0, 0xe4, 0x05, 0x3d, 0x70, 0x26, 0xbf, 0xbc, 0x48, 0x44, 0x1a, 0x3e,
  0x00, 0xe8, 0xb3, 0x3c, 0xaf, 0x07, 0x8f, 0xbe, 0xe4, 0xd1, 0x04, 0x3e,
  0xb0, 0xb4, 0xc1, 0xbd, 0x1e, 0xb1, 0xc4, 0xbe, 0x04, 0x44, 0xa3, 0x3d,
  0x9e, 0x21, 0x27, 0xbe, 0xce, 0x5d, 0x0b, 0x3e, 0xd0, 0x61, 0x06, 0x3e,
  0x15, 0xd1, 0xb3, 0x3e, 0xff, 0x18, 0x99, 0x3e, 0x23, 0x7b, 0x61, 0xbe,
  0xb9, 0xd0, 0x92, 0x3e, 0x5e, 0x81, 0x32, 0x3e, 0xe8, 0xcf, 0x6b, 0xbd,
  0xc0, 0xa2, 0x05, 0x3e, 0x71, 0xc8, 0x85, 0x3e, 0xb0, 0x08, 0x21, 0x3d,
  0xf0, 0xb6, 0x46, 0x3d, 0x2c, 0x9e, 0x86, 0xbe, 0x98, 0xcf, 0x5d, 0x3d,
  0xa9, 0xb8, 0x5c, 0xbe, 0x6e, 0x55, 0x78, 0xbe, 0xf0, 0x7a, 0xbf, 0x3c,
  0xce, 0xbe, 0x03, 0xbe, 0x00, 0x88, 0x00, 0xb9, 0x68, 0x96, 0x2a, 0xbe,
  0x83, 0x1f, 0xa4, 0xbe, 0xd1, 0xbf, 0xa6, 0xbe, 0x8a, 0x13, 0x72, 0x3e,
  0xb0, 0x27, 0x9f, 0xbc, 0xad, 0x33, 0x33, 0x3e, 0xf6, 0x5a, 0x7f, 0x3e,
  0xb4, 0xae, 0x74, 0xbd, 0xe4, 0x5e, 0x27, 0xbe, 0xe0, 0x74, 0xa7, 0xbc,
  0x79, 0x66, 0x83, 0x3e, 0x15, 0x6e, 0xae, 0xbe, 0x68, 0x13, 0x3a, 0xbd,
  0x18, 0x3f, 0x0f, 0x3d, 0xa4, 0x7a, 0x39, 0xbf, 0xa7, 0xd8, 0xa2, 0xbe,
  0x50, 0xdf, 0x99, 0x3c, 0x59, 0x3e, 0x4f, 0xbe, 0x2f, 0xdf, 0x60, 0x3e,
  0x32, 0xf5, 0x5e, 0xbe, 0xc8, 0x65, 0x50, 0xbd, 0x11, 0x15, 0x10, 0x3e,
  0x21, 0x30, 0x78, 0xbe, 0x67, 0xe3, 0x84, 0xbe, 0x80, 0x3e, 0x3c, 0x3b,
  0xae, 0x3a, 0xd4, 0xbd, 0x28, 0x3a, 0x53, 0x3e, 0x82, 0x25, 0xab, 0xbe,
  0x63, 0xb0, 0x7b, 0xbe, 0xa0, 0x2c, 0xff, 0x3c, 0xc5, 0x9e, 0x25, 0x3f,
  0x02, 0x8f, 0x4a, 0x3e, 0xbc, 0x10, 0x81, 0xbe, 0xe7, 0x99, 0xd9, 0xbe,
  0x08, 0xbc, 0x4e, 0x3e, 0x72, 0x9a, 0x66, 0xbe, 0x34, 0x58, 0xa5, 0x3d,
  0x8b, 0x8d, 0x8b, 0xbe, 0x83, 0xab, 0x99, 0x3e, 0xb0, 0x43, 0x0c, 0x3f,
  0x13, 0x64, 0x03, 0xbe, 0x0a, 0x42, 0x04, 0x3e, 0xc6, 0x01, 0xc9, 0x3e,
  0xc9, 0xdc, 0x1a, 0x3e, 0x9f, 0x16, 0x94, 0x3e, 0xf0, 0x66, 0x99, 0x3c,
  0xeb, 0x7e, 0xd1, 0xbc, 0x17, 0x01, 0xb1, 0x3e, 0xe8, 0x9b, 0x88, 0x3d,
  0xd4, 0xd1, 0xbf, 0xbe, 0xf5, 0x98, 0x95, 0xbe, 0x56, 0x90, 0x18, 0xbe,
  0x70, 0x47, 0x94, 0x3d, 0x28, 0x58, 0xb7, 0x3d, 0xaa, 0xc2, 0x7a, 0xbe,
  0x90, 0x85, 0xc5, 0x3c, 0x8c, 0xda, 0xbd, 0xbd, 0xc0, 0xa7, 0x11, 0xbe,
  0x30, 0x85, 0x12, 0xbe, 0xa1, 0x2a, 0xaa, 0xbe, 0x16, 0x05, 0x35, 0x3e,
  0x61, 0x36, 0x9a, 0x3e, 0xb8, 0xe2, 0xf7, 0xbd, 0xd2, 0x33, 0x77, 0x3e,
  0x76, 0xa0, 0x36, 0x3e, 0x14, 0xd2, 0xe0, 0x3d, 0xa2, 0xea, 0xef, 0xbd,
  0x3c, 0xb6, 0x93, 0xbe, 0x9b, 0x8f, 0x8b, 0x3e, 0x92, 0x39, 0x17, 0xbe,
  0xb8, 0xbe, 0x84, 0xbd, 0xef, 0xea, 0xf8, 0xbd, 0x56, 0x58, 0x50, 0x3e,
  0x0f, 0xeb, 0xae, 0x3e, 0xa5, 0x55, 0x89, 0xbd, 0xe9, 0xf2, 0x88, 0x3e,
  0x6b, 0x28, 0x9d, 0x3e, 0xc0, 0x66, 0x4a, 0x3d, 0x55, 0x03, 0x89, 0xbf,
  0x45, 0xd9, 0x9e, 0xbe, 0xc0, 0x37, 0x8c, 0x3c, 0x5e, 0x13, 0xab, 0x3e,
  0xe7, 0xb9, 0x4f, 0xbe, 0xc2, 0x02, 0x71, 0xbe, 0x59, 0x49, 0xa7, 0xbe,
  0x71, 0x1c, 0x84, 0xbe, 0x0a, 0xc3, 0x98, 0xbe, 0xec, 0x98, 0xc5, 0xbd,
  0xe8, 0x5b, 0x73, 0xbe, 0x0e, 0x16, 0x44, 0x3e, 0xd6, 0xd8, 0x2d, 0xbe,
  0xc0, 0x32, 0x7a, 0xbc, 0x3d, 0xfb, 0x4f, 0xbe, 0x66, 0x80, 0x7b, 0x3e,
  0x01, 0x98, 0x92, 0x3e, 0x9b, 0x67, 0xac, 0xbe, 0x00, 0xf5, 0xf6, 0x3d,
  0xbe, 0x96, 0x4b, 0x3e, 0x6c, 0x5d, 0x60, 0xbe, 0x44, 0xdc, 0x98, 0xbd,
  0x89, 0x82, 0x98, 0xbe, 0x90, 0x0d, 0xb8, 0x3d, 0xcd, 0xbb, 0xa9, 0xbe,
  0xd2, 0x93, 0x9c, 0x3e, 0xd0, 0xba, 0xc9, 0x3c, 0x7d, 0x8f, 0xb2, 0x3e,
  0x74, 0x09, 0x43, 0xbd, 0xbf, 0x03, 0xde, 0xbd, 0x87, 0x96, 0x17, 0xbe,
  0xd0, 0x1b, 0xed, 0x3d, 0xc0, 0x17, 0x82, 0xbe, 0xae, 0x76, 0x56, 0x3e,
  0xbd, 0xd0, 0xa7, 0x3e, 0x7a, 0xe3, 0x03, 0xbe, 0x19, 0x0a, 0x46, 0xbe,
  0xb0, 0x3f, 0x2a, 0x3d, 0x13, 0xf1, 0xb1, 0x3e, 0x9d, 0x72, 0x21, 0xbe,
  0x52, 0x3b, 0x50, 0x3e, 0x9b, 0x08, 0x5f, 0xbd, 0x28, 0x8f, 0x4c, 0xbe,
  0xe6, 0xea, 0x67, 0x3e, 0x76, 0xdf, 0x31, 0xbe, 0xd5, 0xde, 0x87, 0x3e,
  0x64, 0xfd, 0x0a, 0x3e, 0xfb, 0xb0, 0x06, 0xbe, 0x42, 0x8b, 0x82, 0xbe,
  0xd3, 0xdd, 0xb0, 0x3e, 0x2a, 0x09, 0x8e, 0xbe, 0x94, 0xe3, 0x56, 0x3e,
  0xa8, 0x7e, 0x88, 0xbe, 0x4a, 0x54, 0x36, 0x3e, 0x12, 0x67, 0x1e, 0xbe,
  0x83, 0xac, 0x91, 0x3e, 0xda, 0x9f, 0xa6, 0xbe, 0x74, 0x86, 0xeb, 0xbe,
  0x34, 0x0f, 0xdf, 0x3d, 0x2a, 0x33, 0x8f, 0xbe, 0xc7, 0x9e, 0x32, 0xbe,
  0x14, 0x7d, 0x51, 0xbe, 0x28, 0x29, 0x87, 0xbe, 0xc8, 0xc2, 0x91, 0xbd,
  0x7f, 0x4b, 0xa3, 0x3d, 0x8a, 0x08, 0x5a, 0x3e, 0xb2, 0xa0, 0xff, 0xbd,
  0x9e, 0x6f, 0x80, 0x3e, 0xcd, 0x90, 0x9b, 0x3e, 0x80, 0xc9, 0xa2, 0x3c,
  0xd6, 0xad, 0x5f, 0x3e, 0x8f, 0x49, 0x03, 0x3e, 0xb4, 0xcb, 0xd0, 0x3d,
  0x69, 0x43, 0x04, 0xbf, 0xa2, 0x8a, 0x79, 0x3e, 0xd8, 0xad, 0x90, 0xbe,
  0x07, 0xf3, 0x64, 0x3e, 0x71, 0x40, 0x60, 0xbe, 0x35, 0x65, 0x89, 0x3e,
  0x63, 0xc7, 0x62, 0xbe, 0x21, 0x66, 0xaa, 0x3c, 0x13, 0xab, 0x96, 0x3e,
  0xf1, 0x3c, 0x2d, 0xbe, 0xf9, 0xbc, 0x37, 0xbd, 0x14, 0xfc, 0x93, 0xbe,
  0x76, 0x14, 0x60, 0x3e, 0xaa, 0xdd, 0x50, 0x3e, 0xde, 0xf8, 0x22, 0x3e,
  0x7c, 0x1f, 0xe5, 0x3d, 0x76, 0x04, 0x25, 0x3e, 0x6b, 0x2d, 0x98, 0x3e,
  0x4d, 0x3a, 0x91, 0x3e, 0x1b, 0x3b, 0x98, 0x3e, 0x23, 0x3e, 0xad, 0xbd,
  0x77, 0x56, 0xa0, 0xbe, 0x00, 0xb4, 0x9b, 0x39, 0xf8, 0x34, 0x78, 0x3e,
  0xc8, 0x56, 0x22, 0x3d, 0x62, 0xcc, 0x39, 0x3e, 0xbf, 0xdd, 0x5c, 0x3d,
  0xcd, 0x5c, 0x8c, 0x3e, 0x8c, 0x33, 0x14, 0xbe, 0x60, 0xc8, 0x3a, 0xbc,
  0xda, 0xbe, 0xc2, 0xbd, 0xba, 0x5f, 0x16, 0x3e, 0xa0, 0xf3, 0xb1, 0x3e,
  0x41, 0xca, 0x85, 0x3e, 0x80, 0x2f, 0x7a, 0xbe, 0x41, 0xf5, 0x31, 0xbe,
  0x00, 0x38, 0xd2, 0x3e, 0x22, 0x87, 0x2f, 0x3e, 0x34, 0x7d, 0xb5, 0x3d,
  0x13, 0xe8, 0xd7, 0x3d, 0xe4, 0x7c, 0x9b, 0xbd, 0xa8, 0xcd, 0xb6, 0x3d,
  0x36, 0x38, 0xec, 0xbe, 0xe9, 0x55, 0x37, 0xbe, 0x00, 0x00, 0x00, 0x00,
  0x86, 0xfc, 0xff, 0xff, 0x04, 0x00, 0x00, 0x00, 0x00, 0x02, 0x00, 0x00,
  0x90, 0x41, 0xa9, 0xbe, 0x00, 0xbb, 0x6a, 0xbe, 0x20, 0xae, 0xef, 0xbe,
  0x2c, 0x0e, 0xd2, 0x3e, 0x70, 0xd3, 0xc9, 0xbd, 0xec, 0x08, 0xac, 0x3e,
  0x00, 0x57, 0x83, 0x3b, 0x50, 0x3b, 0x84, 0xbd, 0xf0, 0xa7, 0x8b, 0xbe,
  0xa0, 0xab, 0x82, 0xbd, 0x3c, 0x5b, 0xc3, 0xbe, 0xd8, 0x65, 0x79, 0xbe,
  0xc0, 0xbf, 0x98, 0x3d, 0xa0, 0xe8, 0x85, 0xbd, 0x58, 0x3b, 0x7b, 0x3e,
  0xc0, 0x7c, 0x90, 0xbe, 0xec, 0x90, 0xcc, 0x3e, 0x89, 0x08, 0xe5, 0x3d,
  0x74, 0x8b, 0x14, 0x3e, 0x41, 0xb4, 0x0f, 0xbf, 0x85, 0x4e, 0xc4, 0xbe,
  0x1c, 0xed, 0xef, 0xbe, 0xe9, 0x7d, 0x05, 0x3f, 0x5d, 0x85, 0xbf, 0xbf,
  0x70, 0x05, 0xfb, 0xbe, 0xe0, 0xf2, 0x82, 0xbd, 0x00, 0x65, 0x82, 0x3d,
  0xb0, 0xd4, 0x73, 0x3e, 0x8c, 0x6b, 0xed, 0x3e, 0x50, 0x09, 0xcf, 0xbe,
  0xe0, 0xb5, 0x13, 0xbd, 0x60, 0x48, 0xdd, 0xbe, 0x09, 0x62, 0x38, 0x3d,
  0x7b, 0x62, 0x4d, 0x3e, 0x9d, 0xc1, 0xd7, 0x3d, 0xbc, 0xf0, 0x75, 0x3e,
  0x35, 0xa4, 0x01, 0xbf, 0xd0, 0xcc, 0x70, 0xbe, 0xfa, 0x98, 0x80, 0xbe,
  0x32, 0x6a, 0xdd, 0x3f, 0x40, 0xb5, 0xdf, 0xbc, 0x08, 0x98, 0x2b, 0x3e,
  0x48, 0xec, 0x78, 0xbe, 0x24, 0xee, 0xe4, 0x3e, 0x00, 0xa1, 0x61, 0xbe,
  0x78, 0x23, 0xda, 0xbe, 0x1c, 0xa5, 0xf9, 0xbe, 0xf0, 0xfb, 0xcd, 0x3e,
  0x90, 0xf3, 0x66, 0xbe, 0x98, 0x3d, 0x47, 0x3e, 0xfc, 0x01, 0xa9, 0xbe,
  0xb8, 0x4c, 0xe2, 0xbe, 0xf0, 0xd9, 0xb7, 0xbd, 0x38, 0x8e, 0x9b, 0xbe,
  0xac, 0xd4, 0xcd, 0xbe, 0x00, 0x75, 0x8f, 0xbe, 0x89, 0x27, 0x89, 0x3e,
  0x4b, 0x84, 0x64, 0x3f, 0xb1, 0xcb, 0x37, 0x3f, 0xeb, 0xec, 0x17, 0x3e,
  0x7d, 0x39, 0xb8, 0xbf, 0x54, 0xb1, 0x9e, 0x3e, 0xf1, 0x76, 0xff, 0x3e,
  0x68, 0xc6, 0x45, 0xbf, 0xbd, 0x87, 0x87, 0x3e, 0x51, 0xa9, 0x31, 0xbf,
  0x81, 0x5d, 0x51, 0xbe, 0xb1, 0xef, 0x26, 0xbf, 0xf9, 0x4a, 0x63, 0x3f,
  0x00, 0x80, 0xab, 0x3b, 0x1d, 0x13, 0x35, 0xbf, 0x4b, 0xdb, 0xb6, 0x3f,
  0x90, 0x6b, 0x59, 0xbe, 0xf0, 0x7f, 0x67, 0xbe, 0x40, 0x72, 0xe7, 0x3e,
  0xb8, 0x93, 0x48, 0x3e, 0x64, 0x15, 0xe4, 0x3e, 0xdc, 0x4a, 0xf4, 0xbe,
  0xd0, 0x6b, 0xeb, 0xbe, 0x70, 0xc2, 0x92, 0x3d, 0x80, 0xbb, 0xc2, 0xbc,
  0x30, 0x6a, 0x1d, 0xbe, 0xac, 0x11, 0x8f, 0xbe, 0x30, 0xd1, 0x7c, 0x3e,
  0x80, 0x1a, 0xfa, 0xbc, 0x88, 0xb9, 0x24, 0x3e, 0x4c, 0xd1, 0x8b, 0xbe,
  0xe8, 0x23, 0x93, 0xbe, 0xb8, 0x94, 0x81, 0x3d, 0xb5, 0xa4, 0x2c, 0x3f,
  0x58, 0x28, 0x12, 0x3f, 0xc8, 0x99, 0x2a, 0xc0, 0x10, 0x95, 0xbb, 0xbf,
  0x78, 0x95, 0x3f, 0xbe, 0xfa, 0xab, 0xa0, 0xbc, 0x4b, 0xa3, 0x5a, 0xbe,
  0xd0, 0xb8, 0x98, 0xbd, 0xd8, 0x50, 0x23, 0x3e, 0x20, 0x32, 0x4e, 0xbd,
  0x90, 0x51, 0x33, 0x3e, 0x38, 0xe7, 0xa6, 0x3e, 0xac, 0x0a, 0x8c, 0xbe,
  0xd8, 0x62, 0x8e, 0x3e, 0x00, 0x42, 0xbb, 0x3e, 0xec, 0x69, 0xf7, 0xbe,
  0x08, 0x9d, 0x69, 0xbe, 0x70, 0x07, 0x5e, 0x3e, 0xd0, 0x5b, 0xbf, 0xbe,
  0xd4, 0x52, 0xb2, 0xbe, 0xb0, 0x2c, 0xcd, 0xbe, 0xf0, 0x9d, 0xd5, 0xbe,
  0x0c, 0x5e, 0xfd, 0xbe, 0xf7, 0xef, 0x54, 0x3d, 0xab, 0x97, 0x38, 0x3f,
  0x9d, 0x2d, 0x65, 0x3c, 0x6d, 0x4d, 0x92, 0xbc, 0xbf, 0x19, 0x58, 0x3f,
  0x00, 0x7f, 0x8e, 0xbc, 0x71, 0xdd, 0x63, 0x3f, 0x0f, 0x7f, 0x7f, 0xbf,
  0x1f, 0x62, 0xa5, 0x3d, 0xa1, 0x13, 0x84, 0x3f, 0xa9, 0x9b, 0x29, 0x3e,
  0xc4, 0xc9, 0x12, 0xbf, 0xc9, 0xc7, 0x44, 0xbf, 0x10, 0xe7, 0x46, 0xbe,
  0xaf, 0x27, 0xcf, 0x3e, 0x24, 0x25, 0xa5, 0xbf, 0x00, 0x00, 0x00, 0x00,
  0x96, 0xfe, 0xff, 0xff, 0x04, 0x00, 0x00, 0x00, 0x04, 0x00, 0x00, 0x00,
  0xc4, 0xdd, 0x8b, 0x3e, 0xa6, 0xfe, 0xff, 0xff, 0x04, 0x00, 0x00, 0x00,
  0x20, 0x00, 0x00, 0x00, 0x1b, 0xf7, 0x9d, 0xbd, 0x0f, 0x19, 0x3c, 0x3c,
  0x2f, 0xc3, 0x6c, 0x3e, 0x0e, 0xb8, 0x2f, 0xbe, 0xe6, 0xe0, 0x0e, 0xbc,
  0x00, 0x00, 0x00, 0x00, 0x00, 0x00, 0x00, 0x00, 0x00, 0x00, 0x00, 0x00,
  0x00, 0x00, 0x00, 0x00, 0xd6, 0xfe, 0xff, 0xff, 0x04, 0x00, 0x00, 0x00,
  0x80, 0x00, 0x00, 0x00, 0xe6, 0x39, 0xee, 0xba, 0xbe, 0xe2, 0xb3, 0x3d,
  0x33, 0x2c, 0x34, 0x3e, 0x41, 0xdb, 0x8c, 0xbd, 0x00, 0x00, 0x00, 0x00,
  0x00, 0x00, 0x00, 0x00, 0xcc, 0xc3, 0xe1, 0x3c, 0x1b, 0x6b, 0xa4, 0x3d,
  0x23, 0x5c, 0xbb, 0xbb, 0x00, 0x00, 0x00, 0x00, 0x27, 0x2f, 0x85, 0x3d,
  0x2b, 0x63, 0x50, 0x3c, 0x32, 0x29, 0x63, 0x3d, 0x91, 0xf4, 0x3f, 0x3e,
  0xa6, 0xfa, 0x9b, 0x3d, 0xf9, 0x74, 0x1f, 0x3e, 0xea, 0x0b, 0x75, 0xbc,
  0x44, 0x56, 0xb6, 0x3d, 0x38, 0xc9, 0x5c, 0xbd, 0x86, 0xa1, 0x73, 0xbc,
  0xa0, 0x7d, 0x10, 0xbc, 0x00, 0x00, 0x00, 0x00, 0x00, 0x00, 0x00, 0x00,
  0x62, 0x1f, 0x2a, 0xbd, 0x00, 0x00, 0x00, 0x00, 0x00, 0x00, 0x00, 0x00,
  0x83, 0x4a, 0x3d, 0x3e, 0xa2, 0x9b, 0xd8, 0x3d, 0x00, 0x00, 0x00, 0x00,
  0xce, 0xa8, 0x39, 0x3e, 0x00, 0x00, 0x00, 0x00, 0x1d, 0x2f, 0x6f, 0xbd,
  0x00, 0x00, 0x00, 0x00, 0x66, 0xff, 0xff, 0xff, 0x04, 0x00, 0x00, 0x00,
  0x80, 0x00, 0x00, 0x00, 0x47, 0xf0, 0x82, 0x3d, 0xdc, 0xf7, 0x48, 0xbc,
  0x52, 0x13, 0xf5, 0xbd, 0x07, 0xac, 0xe7, 0xbc, 0x7d, 0x2c, 0x58, 0xbd,
  0x7f, 0xdf, 0x51, 0xbe, 0x00, 0x00, 0x00, 0x00, 0xfe, 0x04, 0x08, 0xbe,
  0x00, 0x00, 0x00, 0x00, 0x00, 0x00, 0x00, 0x00, 0x00, 0x00, 0x00, 0x00,
  0x00, 0x00, 0x00, 0x00, 0xae, 0x3a, 0x4f, 0xbb, 0x00, 0x00, 0x00, 0x00,
  0x82, 0xbe, 0x07, 0x3d, 0x89, 0x2c, 0xd5, 0xbd, 0x00, 0x00, 0x00, 0x00,
  0xb6, 0xd6, 0x41, 0x3d, 0xa3, 0x70, 0x50, 0xbd, 0x00, 0x00, 0x00, 0x00,
  0xda, 0x41, 0xbd, 0xbd, 0x77, 0x87, 0x42, 0xbe, 0xf2, 0x91, 0xbb, 0x3c,
  0x00, 0x00, 0x00, 0x00, 0x9d, 0xf4, 0x54, 0x3c, 0x00, 0x00, 0x00, 0x00,
  0x42, 0xd3, 0x17, 0xbd, 0xbe, 0x21, 0x60, 0xbc, 0x49, 0x61, 0x2c, 0xbd,
  0x00, 0xa1, 0xa1, 0xbd, 0x7a, 0x13, 0x8e, 0xbc, 0x53, 0x5b, 0x15, 0x3c,
  0x00, 0x00, 0x00, 0x00, 0x00, 0x00, 0x00, 0x00, 0x00, 0x00, 0x00, 0x00,
  0x00, 0x00, 0x06, 0x00, 0x08, 0x00, 0x04, 0x00, 0x06, 0x00, 0x00, 0x00,
  0x04, 0x00, 0x00, 0x00, 0x40, 0x00, 0x00, 0x00, 0x00, 0x00, 0x00, 0x00,
  0x00, 0x00, 0x00, 0x00, 0x21, 0x82, 0xc5, 0xbd, 0x00, 0x00, 0x00, 0x00,
  0x18, 0x7a, 0x22, 0xbd, 0x00, 0x00, 0x00, 0x00, 0x00, 0x00, 0x00, 0x00,
  0x41, 0xe4, 0x42, 0xbe, 0xd2, 0x7a, 0x50, 0xbe, 0x00, 0x00, 0x00, 0x00,
  0x00, 0x00, 0x00, 0x00, 0x95, 0xac, 0xcb, 0xbd, 0x00, 0x00, 0x00, 0x00,
  0x00, 0x00, 0x00, 0x00, 0x50, 0x0a, 0xb4, 0xbd, 0xbe, 0xe2, 0xcc, 0xbd,
  0x00, 0x00, 0x00, 0x00, 0x00, 0x00, 0x00, 0x00, 0x00, 0x00, 0x00, 0x00,
  0xd4, 0xf8, 0xff, 0xff, 0x00, 0x00, 0x00, 0x00, 0x00, 0x00, 0x00, 0x00,
  0x00, 0x00, 0x00, 0x00, 0xe4, 0xf8, 0xff, 0xff, 0x00, 0x00, 0x00, 0x00,
  0x0f, 0x00, 0x00, 0x00, 0x4d, 0x4c, 0x49, 0x52, 0x20, 0x43, 0x6f, 0x6e,
  0x76, 0x65, 0x72, 0x74, 0x65, 0x64, 0x2e, 0x00, 0x01, 0x00, 0x00, 0x00,
  0x14, 0x00, 0x00, 0x00, 0x00, 0x00, 0x0e, 0x00, 0x18, 0x00, 0x04, 0x00,
  0x08, 0x00, 0x0c, 0x00, 0x10, 0x00, 0x14, 0x00, 0x0e, 0x00, 0x00, 0x00,
  0x70, 0x01, 0x00, 0x00, 0x64, 0x01, 0x00, 0x00, 0x58, 0x01, 0x00, 0x00,
  0x14, 0x00, 0x00, 0x00, 0x04, 0x00, 0x00, 0x00, 0x04, 0x00, 0x00, 0x00,
  0x6d, 0x61, 0x69, 0x6e, 0x00, 0x00, 0x00, 0x00, 0x05, 0x00, 0x00, 0x00,
  0x00, 0x01, 0x00, 0x00, 0xb8, 0x00, 0x00, 0x00, 0x70, 0x00, 0x00, 0x00,
  0x38, 0x00, 0x00, 0x00, 0x04, 0x00, 0x00, 0x00, 0x66, 0xff, 0xff, 0xff,
  0x00, 0x00, 0x00, 0x08, 0x18, 0x00, 0x00, 0x00, 0x0c, 0x00, 0x00, 0x00,
  0x04, 0x00, 0x00, 0x00, 0x68, 0xf9, 0xff, 0xff, 0x01, 0x00, 0x00, 0x00,
  0x0f, 0x00, 0x00, 0x00, 0x03, 0x00, 0x00, 0x00, 0x0e, 0x00, 0x00, 0x00,
  0x0a, 0x00, 0x00, 0x00, 0x05, 0x00, 0x00, 0x00, 0x96, 0xff, 0xff, 0xff,
  0x00, 0x00, 0x00, 0x08, 0x1c, 0x00, 0x00, 0x00, 0x10, 0x00, 0x00, 0x00,
  0x04, 0x00, 0x00, 0x00, 0x42, 0xff, 0xff, 0xff, 0x00, 0x00, 0x00, 0x01,
  0x01, 0x00, 0x00, 0x00, 0x0e, 0x00, 0x00, 0x00, 0x03, 0x00, 0x00, 0x00,
  0x0d, 0x00, 0x00, 0x00, 0x09, 0x00, 0x00, 0x00, 0x04, 0x00, 0x00, 0x00,
  0xca, 0xff, 0xff, 0xff, 0x00, 0x00, 0x00, 0x08, 0x1c, 0x00, 0x00, 0x00,
  0x10, 0x00, 0x00, 0x00, 0x04, 0x00, 0x00, 0x00, 0x76, 0xff, 0xff, 0xff,
  0x00, 0x00, 0x00, 0x01, 0x01, 0x00, 0x00, 0x00, 0x0d, 0x00, 0x00, 0x00,
  0x03, 0x00, 0x00, 0x00, 0x0c, 0x00, 0x00, 0x00, 0x08, 0x00, 0x00, 0x00,
  0x03, 0x00, 0x00, 0x00, 0x00, 0x00, 0x0e, 0x00, 0x14, 0x00, 0x00, 0x00,
  0x08, 0x00, 0x0c, 0x00, 0x07, 0x00, 0x10, 0x00, 0x0e, 0x00, 0x00, 0x00,
  0x00, 0x00, 0x00, 0x08, 0x1c, 0x00, 0x00, 0x00, 0x10, 0x00, 0x00, 0x00,
  0x04, 0x00, 0x00, 0x00, 0xba, 0xff, 0xff, 0xff, 0x00, 0x00, 0x00, 0x01,
  0x01, 0x00, 0x00, 0x00, 0x0c, 0x00, 0x00, 0x00, 0x03, 0x00, 0x00, 0x00,
  0x0b, 0x00, 0x00, 0x00, 0x07, 0x00, 0x00, 0x00, 0x02, 0x00, 0x00, 0x00,
  0x00, 0x00, 0x0e, 0x00, 0x16, 0x00, 0x00, 0x00, 0x08, 0x00, 0x0c, 0x00,
  0x07, 0x00, 0x10, 0x00, 0x0e, 0x00, 0x00, 0x00, 0x00, 0x00, 0x00, 0x08,
  0x24, 0x00, 0x00, 0x00, 0x18, 0x00, 0x00, 0x00, 0x0c, 0x00, 0x00, 0x00,
  0x00, 0x00, 0x06, 0x00, 0x08, 0x00, 0x07, 0x00, 0x06, 0x00, 0x00, 0x00,
  0x00, 0x00, 0x00, 0x01, 0x01, 0x00, 0x00, 0x00, 0x0b, 0x00, 0x00, 0x00,
  0x03, 0x00, 0x00, 0x00, 0x00, 0x00, 0x00, 0x00, 0x06, 0x00, 0x00, 0x00,
  0x01, 0x00, 0x00, 0x00, 0x01, 0x00, 0x00, 0x00, 0x0f, 0x00, 0x00, 0x00,
  0x01, 0x00, 0x00, 0x00, 0x00, 0x00, 0x00, 0x00, 0x10, 0x00, 0x00, 0x00,
  0x5c, 0x05, 0x00, 0x00, 0xf4, 0x04, 0x00, 0x00, 0x9c, 0x04, 0x00, 0x00,
  0x44, 0x04, 0x00, 0x00, 0xec, 0x03, 0x00, 0x00, 0x94, 0x03, 0x00, 0x00,
  0x48, 0x03, 0x00, 0x00, 0xfc, 0x02, 0x00, 0x00, 0x84, 0x02, 0x00, 0x00,
  0x28, 0x02, 0x00, 0x00, 0xdc, 0x01, 0x00, 0x00, 0x74, 0x01, 0x00, 0x00,
  0x0c, 0x01, 0x00, 0x00, 0xa4, 0x00, 0x00, 0x00, 0x3c, 0x00, 0x00, 0x00,
  0x04, 0x00, 0x00, 0x00, 0xf2, 0xfa, 0xff, 0xff, 0x24, 0x00, 0x00, 0x00,
  0x10, 0x00, 0x00, 0x00, 0x0c, 0x00, 0x00, 0x00, 0x04, 0x00, 0x00, 0x00,
  0xe4, 0xfa, 0xff, 0xff, 0x08, 0x00, 0x00, 0x00, 0x49, 0x64, 0x65, 0x6e,
  0x74, 0x69, 0x74, 0x79, 0x00, 0x00, 0x00, 0x00, 0x02, 0x00, 0x00, 0x00,
  0x01, 0x00, 0x00, 0x00, 0x01, 0x00, 0x00, 0x00, 0x26, 0xfb, 0xff, 0xff,
  0x54, 0x00, 0x00, 0x00, 0x0f, 0x00, 0x00, 0x00, 0x0c, 0x00, 0x00, 0x00,
  0x04, 0x00, 0x00, 0x00, 0x18, 0xfb, 0xff, 0xff, 0x38, 0x00, 0x00, 0x00,
  0x73, 0x65, 0x71, 0x75, 0x65, 0x6e, 0x74, 0x69, 0x61, 0x6c, 0x5f, 0x35,
  0x2f, 0x64, 0x65, 0x6e, 0x73, 0x65, 0x5f, 0x32, 0x38, 0x2f, 0x52, 0x65,
  0x6c, 0x75, 0x3b, 0x73, 0x65, 0x71, 0x75, 0x65, 0x6e, 0x74, 0x69, 0x61,
  0x6c, 0x5f, 0x35, 0x2f, 0x64, 0x65, 0x6e, 0x73, 0x65, 0x5f, 0x32, 0x38,
  0x2f, 0x42, 0x69, 0x61, 0x73, 0x41, 0x64, 0x64, 0x00, 0x00, 0x00, 0x00,
  0x02, 0x00, 0x00, 0x00, 0x01, 0x00, 0x00, 0x00, 0x08, 0x00, 0x00, 0x00,
  0x8a, 0xfb, 0xff, 0xff, 0x54, 0x00, 0x00, 0x00, 0x0e, 0x00, 0x00, 0x00,
  0x0c, 0x00, 0x00, 0x00, 0x04, 0x00, 0x00, 0x00, 0x7c, 0xfb, 0xff, 0xff,
  0x38, 0x00, 0x00, 0x00, 0x73, 0x65, 0x71, 0x75, 0x65, 0x6e, 0x74, 0x69,
  0x61, 0x6c, 0x5f, 0x35, 0x2f, 0x64, 0x65, 0x6e, 0x73, 0x65, 0x5f, 0x32,
  0x37, 0x2f, 0x52, 0x65, 0x6c, 0x75, 0x3b, 0x73, 0x65, 0x71, 0x75, 0x65,
  0x6e, 0x74, 0x69, 0x61, 0x6c, 0x5f, 0x35, 0x2f, 0x64, 0x65, 0x6e, 0x73,
  0x65, 0x5f, 0x32, 0x37, 0x2f, 0x42, 0x69, 0x61, 0x73, 0x41, 0x64, 0x64,
  0x00, 0x00, 0x00, 0x00, 0x02, 0x00, 0x00, 0x00, 0x01, 0x00, 0x00, 0x00,
  0x20, 0x00, 0x00, 0x00, 0xee, 0xfb, 0xff, 0xff, 0x54, 0x00, 0x00, 0x00,
  0x0d, 0x00, 0x00, 0x00, 0x0c, 0x00, 0x00, 0x00, 0x04, 0x00, 0x00, 0x00,
  0xe0, 0xfb, 0xff, 0xff, 0x38, 0x00, 0x00, 0x00, 0x73, 0x65, 0x71, 0x75,
  0x65, 0x6e, 0x74, 0x69, 0x61, 0x6c, 0x5f, 0x35, 0x2f, 0x64, 0x65, 0x6e,
  0x73, 0x65, 0x5f, 0x32, 0x36, 0x2f, 0x52, 0x65, 0x6c, 0x75, 0x3b, 0x73,
  0x65, 0x71, 0x75, 0x65, 0x6e, 0x74, 0x69, 0x61, 0x6c, 0x5f, 0x35, 0x2f,
  0x64, 0x65, 0x6e, 0x73, 0x65, 0x5f, 0x32, 0x36, 0x2f, 0x42, 0x69, 0x61,
  0x73, 0x41, 0x64, 0x64, 0x00, 0x00, 0x00, 0x00, 0x02, 0x00, 0x00, 0x00,
  0x01, 0x00, 0x00, 0x00, 0x20, 0x00, 0x00, 0x00, 0x52, 0xfc, 0xff, 0xff,
  0x54, 0x00, 0x00, 0x00, 0x0c, 0x00, 0x00, 0x00, 0x0c, 0x00, 0x00, 0x00,
  0x04, 0x00, 0x00, 0x00, 0x44, 0xfc, 0xff, 0xff, 0x38, 0x00, 0x00, 0x00,
  0x73, 0x65, 0x71, 0x75, 0x65, 0x6e, 0x74, 0x69, 0x61, 0x6c, 0x5f, 0x35,
  0x2f, 0x64, 0x65, 0x6e, 0x73, 0x65, 0x5f, 0x32, 0x35, 0x2f, 0x52, 0x65,
  0x6c, 0x75, 0x3b, 0x73, 0x65, 0x71, 0x75, 0x65, 0x6e, 0x74, 0x69, 0x61,
  0x6c, 0x5f, 0x35, 0x2f, 0x64, 0x65, 0x6e, 0x73, 0x65, 0x5f, 0x32, 0x35,
  0x2f, 0x42, 0x69, 0x61, 0x73, 0x41, 0x64, 0x64, 0x00, 0x00, 0x00, 0x00,
  0x02, 0x00, 0x00, 0x00, 0x01, 0x00, 0x00, 0x00, 0x10, 0x00, 0x00, 0x00,
  0xb6, 0xfc, 0xff, 0xff, 0x38, 0x00, 0x00, 0x00, 0x0b, 0x00, 0x00, 0x00,
  0x0c, 0x00, 0x00, 0x00, 0x04, 0x00, 0x00, 0x00, 0xa8, 0xfc, 0xff, 0xff,
  0x1c, 0x00, 0x00, 0x00, 0x73, 0x65, 0x71, 0x75, 0x65, 0x6e, 0x74, 0x69,
  0x61, 0x6c, 0x5f, 0x35, 0x2f, 0x64, 0x65, 0x6e, 0x73, 0x65, 0x5f, 0x32,
  0x39, 0x2f, 0x4d, 0x61, 0x74, 0x4d, 0x75, 0x6c, 0x00, 0x00, 0x00, 0x00,
  0x02, 0x00, 0x00, 0x00, 0x01, 0x00, 0x00, 0x00, 0x08, 0x00, 0x00, 0x00,
  0xfe, 0xfc, 0xff, 0xff, 0x38, 0x00, 0x00, 0x00, 0x0a, 0x00, 0x00, 0x00,
  0x0c, 0x00, 0x00, 0x00, 0x04, 0x00, 0x00, 0x00, 0xf0, 0xfc, 0xff, 0xff,
  0x1c, 0x00, 0x00, 0x00, 0x73, 0x65, 0x71, 0x75, 0x65, 0x6e, 0x74, 0x69,
  0x61, 0x6c, 0x5f, 0x35, 0x2f, 0x64, 0x65, 0x6e, 0x73, 0x65, 0x5f, 0x32,
  0x38, 0x2f, 0x4d, 0x61, 0x74, 0x4d, 0x75, 0x6c, 0x00, 0x00, 0x00, 0x00,
  0x02, 0x00, 0x00, 0x00, 0x08, 0x00, 0x00, 0x00, 0x20, 0x00, 0x00, 0x00,
  0x00, 0x00, 0x0e, 0x00, 0x18, 0x00, 0x08, 0x00, 0x07, 0x00, 0x0c, 0x00,
  0x10, 0x00, 0x14, 0x00, 0x0e, 0x00, 0x00, 0x00, 0x00, 0x00, 0x00, 0x09,
  0x60, 0x00, 0x00, 0x00, 0x09, 0x00, 0x00, 0x00, 0x34, 0x00, 0x00, 0x00,
  0x10, 0x00, 0x00, 0x00, 0x0c, 0x00, 0x0c, 0x00, 0x00, 0x00, 0x00, 0x00,
  0x04, 0x00, 0x08, 0x00, 0x0c, 0x00, 0x00, 0x00, 0x14, 0x00, 0x00, 0x00,
  0x04, 0x00, 0x00, 0x00, 0x01, 0x00, 0x00, 0x00, 0x00, 0x00, 0x00, 0x00,
  0x00, 0x00, 0x00, 0x00, 0x01, 0x00, 0x00, 0x00, 0x1e, 0x67, 0xf1, 0x3c,
  0x1c, 0x00, 0x00, 0x00, 0x73, 0x65, 0x71, 0x75, 0x65, 0x6e, 0x74, 0x69,
  0x61, 0x6c, 0x5f, 0x35, 0x2f, 0x64, 0x65, 0x6e, 0x73, 0x65, 0x5f, 0x32,
  0x37, 0x2f, 0x4d, 0x61, 0x74, 0x4d, 0x75, 0x6c, 0x00, 0x00, 0x00, 0x00,
  0x02, 0x00, 0x00, 0x00, 0x20, 0x00, 0x00, 0x00, 0x20, 0x00, 0x00, 0x00,
  0xca, 0xfd, 0xff, 0xff, 0x38, 0x00, 0x00, 0x00, 0x08, 0x00, 0x00, 0x00,
  0x0c, 0x00, 0x00, 0x00, 0x04, 0x00, 0x00, 0x00, 0xbc, 0xfd, 0xff, 0xff,
  0x1c, 0x00, 0x00, 0x00, 0x73, 0x65, 0x71, 0x75, 0x65, 0x6e, 0x74, 0x69,
  0x61, 0x6c, 0x5f, 0x35, 0x2f, 0x64, 0x65, 0x6e, 0x73, 0x65, 0x5f, 0x32,
  0x36, 0x2f, 0x4d, 0x61, 0x74, 0x4d, 0x75, 0x6c, 0x00, 0x00, 0x00, 0x00,
  0x02, 0x00, 0x00, 0x00, 0x20, 0x00, 0x00, 0x00, 0x10, 0x00, 0x00, 0x00,
  0x12, 0xfe, 0xff, 0xff, 0x38, 0x00, 0x00, 0x00, 0x07, 0x00, 0x00, 0x00,
  0x0c, 0x00, 0x00, 0x00, 0x04, 0x00, 0x00, 0x00, 0x04, 0xfe, 0xff, 0xff,
  0x1c, 0x00, 0x00, 0x00, 0x73, 0x65, 0x71, 0x75, 0x65, 0x6e, 0x74, 0x69,
  0x61, 0x6c, 0x5f, 0x35, 0x2f, 0x64, 0x65, 0x6e, 0x73, 0x65, 0x5f, 0x32,
  0x35, 0x2f, 0x4d, 0x61, 0x74, 0x4d, 0x75, 0x6c, 0x00, 0x00, 0x00, 0x00,
  0x02, 0x00, 0x00, 0x00, 0x10, 0x00, 0x00, 0x00, 0x08, 0x00, 0x00, 0x00,
  0x5a, 0xfe, 0xff, 0xff, 0x48, 0x00, 0x00, 0x00, 0x06, 0x00, 0x00, 0x00,
  0x0c, 0x00, 0x00, 0x00, 0x04, 0x00, 0x00, 0x00, 0x4c, 0xfe, 0xff, 0xff,
  0x2c, 0x00, 0x00, 0x00, 0x73, 0x65, 0x71, 0x75, 0x65, 0x6e, 0x74, 0x69,
  0x61, 0x6c, 0x5f, 0x35, 0x2f, 0x64, 0x65, 0x6e, 0x73, 0x65, 0x5f, 0x32,
  0x39, 0x2f, 0x42, 0x69, 0x61, 0x73, 0x41, 0x64, 0x64, 0x2f, 0x52, 0x65,
  0x61, 0x64, 0x56, 0x61, 0x72, 0x69, 0x61, 0x62, 0x6c, 0x65, 0x4f, 0x70,
  0x00, 0x00, 0x00, 0x00, 0x01, 0x00, 0x00, 0x00, 0x01, 0x00, 0x00, 0x00,
  0xae, 0xfe, 0xff, 0xff, 0x48, 0x00, 0x00, 0x00, 0x05, 0x00, 0x00, 0x00,
  0x0c, 0x00, 0x00, 0x00, 0x04, 0x00, 0x00, 0x00, 0xa0, 0xfe, 0xff, 0xff,
  0x2c, 0x00, 0x00, 0x00, 0x73, 0x65, 0x71, 0x75, 0x65, 0x6e, 0x74, 0x69,
  0x61, 0x6c, 0x5f, 0x35, 0x2f, 0x64, 0x65, 0x6e, 0x73, 0x65, 0x5f, 0x32,
  0x38, 0x2f, 0x42, 0x69, 0x61, 0x73, 0x41, 0x64, 0x64, 0x2f, 0x52, 0x65,
  0x61, 0x64, 0x56, 0x61, 0x72, 0x69, 0x61, 0x62, 0x6c, 0x65, 0x4f, 0x70,
  0x00, 0x00, 0x00, 0x00, 0x01, 0x00, 0x00, 0x00, 0x08, 0x00, 0x00, 0x00,
  0x02, 0xff, 0xff, 0xff, 0x48, 0x00, 0x00, 0x00, 0x04, 0x00, 0x00, 0x00,
  0x0c, 0x00, 0x00, 0x00, 0x04, 0x00, 0x00, 0x00, 0xf4, 0xfe, 0xff, 0xff,
  0x2c, 0x00, 0x00, 0x00, 0x73, 0x65, 0x71, 0x75, 0x65, 0x6e, 0x74, 0x69,
  0x61, 0x6c, 0x5f, 0x35, 0x2f, 0x64, 0x65, 0x6e, 0x73, 0x65, 0x5f, 0x32,
  0x37, 0x2f, 0x42, 0x69, 0x61, 0x73, 0x41, 0x64, 0x64, 0x2f, 0x52, 0x65,
  0x61, 0x64, 0x56, 0x61, 0x72, 0x69, 0x61, 0x62, 0x6c, 0x65, 0x4f, 0x70,
  0x00, 0x00, 0x00, 0x00, 0x01, 0x00, 0x00, 0x00, 0x20, 0x00, 0x00, 0x00,
  0x56, 0xff, 0xff, 0xff, 0x48, 0x00, 0x00, 0x00, 0x03, 0x00, 0x00, 0x00,
  0x0c, 0x00, 0x00, 0x00, 0x04, 0x00, 0x00, 0x00, 0x48, 0xff, 0xff, 0xff,
  0x2c, 0x00, 0x00, 0x00, 0x73, 0x65, 0x71, 0x75, 0x65, 0x6e, 0x74, 0x69,
  0x61, 0x6c, 0x5f, 0x35, 0x2f, 0x64, 0x65, 0x6e, 0x73, 0x65, 0x5f, 0x32,
  0x36, 0x2f, 0x42, 0x69, 0x61, 0x73, 0x41, 0x64, 0x64, 0x2f, 0x52, 0x65,
  0x61, 0x64, 0x56, 0x61, 0x72, 0x69, 0x61, 0x62, 0x6c, 0x65, 0x4f, 0x70,
  0x00, 0x00, 0x00, 0x00, 0x01, 0x00, 0x00, 0x00, 0x20, 0x00, 0x00, 0x00,
  0xaa, 0xff, 0xff, 0xff, 0x48, 0x00, 0x00, 0x00, 0x02, 0x00, 0x00, 0x00,
  0x0c, 0x00, 0x00, 0x00, 0x04, 0x00, 0x00, 0x00, 0x9c, 0xff, 0xff, 0xff,
  0x2c, 0x00, 0x00, 0x00, 0x73, 0x65, 0x71, 0x75, 0x65, 0x6e, 0x74, 0x69,
  0x61, 0x6c, 0x5f, 0x35, 0x2f, 0x64, 0x65, 0x6e, 0x73, 0x65, 0x5f, 0x32,
  0x35, 0x2f, 0x42, 0x69, 0x61, 0x73, 0x41, 0x64, 0x64, 0x2f, 0x52, 0x65,
  0x61, 0x64, 0x56, 0x61, 0x72, 0x69, 0x61, 0x62, 0x6c, 0x65, 0x4f, 0x70,
  0x00, 0x00, 0x00, 0x00, 0x01, 0x00, 0x00, 0x00, 0x10, 0x00, 0x00, 0x00,
  0x00, 0x00, 0x0e, 0x00, 0x14, 0x00, 0x04, 0x00, 0x00, 0x00, 0x08, 0x00,
  0x0c, 0x00, 0x10, 0x00, 0x0e, 0x00, 0x00, 0x00, 0x2c, 0x00, 0x00, 0x00,
  0x01, 0x00, 0x00, 0x00, 0x10, 0x00, 0x00, 0x00, 0x08, 0x00, 0x00, 0x00,
  0x04, 0x00, 0x04, 0x00, 0x04, 0x00, 0x00, 0x00, 0x0e, 0x00, 0x00, 0x00,
  0x64, 0x65, 0x6e, 0x73, 0x65, 0x5f, 0x32, 0x35, 0x5f, 0x69, 0x6e, 0x70,
  0x75, 0x74, 0x00, 0x00, 0x02, 0x00, 0x00, 0x00, 0x01, 0x00, 0x00, 0x00,
  0x08, 0x00, 0x00, 0x00, 0x01, 0x00, 0x00, 0x00, 0x10, 0x00, 0x00, 0x00,
  0x00, 0x00, 0x0a, 0x00, 0x0c, 0x00, 0x07, 0x00, 0x00, 0x00, 0x08, 0x00,
  0x0a, 0x00, 0x00, 0x00, 0x00, 0x00, 0x00, 0x09, 0x03, 0x00, 0x00, 0x00
};
unsigned int temperature_predictor_tflite_len = 7392;
